{
  "version": "1.0",
  "truncation": {
    "direction": "Right",
    "max_length": 250,
    "strategy": "LongestFirst",
    "stride": 0
  },
  "padding": {
    "strategy": "BatchLongest",
    "direction": "Right",
    "pad_to_multiple_of": null,
    "pad_id": 0,
    "pad_type_id": 0,
    "pad_token": "[PAD]"
  },
  "added_tokens": [
    {
      "id": 0,
      "content": "[PAD]",
      "single_word": false,
      "lstrip": false,
      "rstrip": false,
      "normalized": false,
      "special": true
    },
    {
      "id": 100,
      "content": "[UNK]",
      "single_word": false,
      "lstrip": false,
      "rstrip": false,
      "normalized": false,
      "special": true
    },
    {
      "id": 101,
      "content": "[CLS]",
      "single_word": false,
      "lstrip": false,
      "rstrip": false,
      "normalized": false,
      "special": true
    },
    {
      "id": 102,
      "content": "[SEP]",
      "single_word": false,
      "lstrip": false,
      "rstrip": false,
      "normalized": false,
      "special": true
    },
    {
      "id": 103,
      "content": "[MASK]",
      "single_word": false,
      "lstrip": false,
      "rstrip": false,
      "normalized": false,
      "special": true
    }
  ],
  "normalizer": {
    "type": "BertNormalizer",
    "clean_text": true,
    "handle_chinese_chars": true,
    "strip_accents": false,
    "lowercase": true
  },
  "pre_tokenizer": {
    "type": "BertPreTokenizer"
  },
  "post_processor": {
    "type": "TemplateProcessing",
    "single": [
      {
        "SpecialToken": {
          "id": "[CLS]",
          "type_id": 0
        }
      },
      {
        "Sequence": {
          "id": "A",
          "type_id": 0
        }
      },
      {
        "SpecialToken": {
          "id": "[SEP]",
          "type_id": 0
        }
      }
    ],
    "pair": [
      {
        "SpecialToken": {
          "id": "[CLS]",
          "type_id": 0
        }
      },
      {
        "Sequence": {
          "id": "A",
          "type_id": 0
        }
      },
      {
        "SpecialToken": {
          "id": "[SEP]",
          "type_id": 0
        }
      },
      {
        "Sequence": {
          "id": "B",
          "type_id": 1
        }
      },
      {
        "SpecialToken": {
          "id": "[SEP]",
          "type_id": 1
        }
      }
    ],
    "special_tokens": {
      "[CLS]": {
        "id": "[CLS]",
        "ids": [
          101
        ],
        "tokens": [
          "[CLS]"
        ]
      },
      "[SEP]": {
        "id": "[SEP]",
        "ids": [
          102
        ],
        "tokens": [
          "[SEP]"
        ]
      }
    }
  },
  "decoder": {
    "type": "WordPiece",
    "prefix": "##",
    "cleanup": true
  },
  "model": {
    "type": "WordPiece",
    "unk_token": "[UNK]",
    "continuing_subword_prefix": "##",
    "max_input_chars_per_word": 100,
    "vocab": {
      "[PAD]": 0,
      "[unused0]": 1,
      "[unused1]": 2,
      "[unused2]": 3,
      "[unused3]": 4,
      "[unused4]": 5,
      "[unused5]": 6,
      "[unused6]": 7,
      "[unused7]": 8,
      "[unused8]": 9,
      "[unused9]": 10,
      "[unused10]": 11,
      "[unused11]": 12,
      "[unused12]": 13,
      "[unused13]": 14,
      "[unused14]": 15,
      "[unused15]": 16,
      "[unused16]": 17,
      "[unused17]": 18,
      "[unused18]": 19,
      "[unused19]": 20,
      "[unused20]": 21,
      "[unused21]": 22,
      "[unused22]": 23,
      "[unused23]": 24,
      "[unused24]": 25,
      "[unused25]": 26,
      "[unused26]": 27,
      "[unused27]": 28,
      "[unused28]": 29,
      "[unused29]": 30,
      "[unused30]": 31,
      "[unused31]": 32,
      "[unused32]": 33,
      "[unused33]": 34,
      "[unused34]": 35,
      "[unused35]": 36,
      "[unused36]": 37,
      "[unused37]": 38,
      "[unused38]": 39,
      "[unused39]": 40,
      "[unused40]": 41,
      "[unused41]": 42,
      "[unused42]": 43,
      "[unused43]": 44,
      "[unused44]": 45,
      "[unused45]": 46,
      "[unused46]": 47,
      "[unused47]": 48,
      "[unused48]": 49,
      "[unused49]": 50,
      "[unused50]": 51,
      "[unused51]": 52,
      "[unused52]": 53,
      "[unused53]": 54,
      "[unused54]": 55,
      "[unused55]": 56,
      "[unused56]": 57,
      "[unused57]": 58,
      "[unused58]": 59,
      "[unused59]": 60,
      "[unused60]": 61,
      "[unused61]": 62,
      "[unused62]": 63,
      "[unused63]": 64,
      "[unused64]": 65,
      "[unused65]": 66,
      "[unused66]": 67,
      "[unused67]": 68,
      "[unused68]": 69,
      "[unused69]": 70,
      "[unused70]": 71,
      "[unused71]": 72,
      "[unused72]": 73,
      "[unused73]": 74,
      "[unused74]": 75,
      "[unused75]": 76,
      "[unused76]": 77,
      "[unused77]": 78,
      "[unused78]": 79,
      "[unused79]": 80,
      "[unused80]": 81,
      "[unused81]": 82,
      "[unused82]": 83,
      "[unused83]": 84,
      "[unused84]": 85,
      "[unused85]": 86,
      "[unused86]": 87,
      "[unused87]": 88,
      "[unused88]": 89,
      "[unused89]": 90,
      "[unused90]": 91,
      "[unused91]": 92,
      "[unused92]": 93,
      "[unused93]": 94,
      "[unused94]": 95,
      "[unused95]": 96,
      "[unused96]": 97,
      "[unused97]": 98,
      "[unused98]": 99,
      "[UNK]": 100,
      "[CLS]": 101,
      "[SEP]": 102,
      "[MASK]": 103,
      "[unused99]": 104,
      "[unused100]": 105,
      "[unused101]": 106,
      "[unused102]": 107,
      "[unused103]": 108,
      "[unused104]": 109,
      "[unused105]": 110,
      "[unused106]": 111,
      "[unused107]": 112,
      "[unused108]": 113,
      "[unused109]": 114,
      "[unused110]": 115,
      "[unused111]": 116,
      "[unused112]": 117,
      "[unused113]": 118,
      "[unused114]": 119,
      "[unused115]": 120,
      "[unused116]": 121,
      "[unused117]": 122,
      "[unused118]": 123,
      "[unused119]": 124,
      "[unused120]": 125,
      "[unused121]": 126,
      "[unused122]": 127,
      "[unused123]": 128,
      "[unused124]": 129,
      "[unused125]": 130,
      "[unused126]": 131,
      "[unused127]": 132,
      "[unused128]": 133,
      "[unused129]": 134,
      "[unused130]": 135,
      "[unused131]": 136,
      "[unused132]": 137,
      "[unused133]": 138,
      "[unused134]": 139,
      "[unused135]": 140,
      "[unused136]": 141,
      "[unused137]": 142,
      "[unused138]": 143,
      "[unused139]": 144,
      "[unused140]": 145,
      "[unused141]": 146,
      "[unused142]": 147,
      "[unused143]": 148,
      "[unused144]": 149,
      "[unused145]": 150,
      "[unused146]": 151,
      "[unused147]": 152,
      "[unused148]": 153,
      "[unused149]": 154,
      "[unused150]": 155,
      "[unused151]": 156,
      "[unused152]": 157,
      "[unused153]": 158,
      "[unused154]": 159,
      "[unused155]": 160,
      "[unused156]": 161,
      "[unused157]": 162,
      "[unused158]": 163,
      "[unused159]": 164,
      "[unused160]": 165,
      "[unused161]": 166,
      "[unused162]": 167,
      "[unused163]": 168,
      "[unused164]": 169,
      "[unused165]": 170,
      "[unused166]": 171,
      "[unused167]": 172,
      "[unused168]": 173,
      "[unused169]": 174,
      "[unused170]": 175,
      "[unused171]": 176,
      "[unused172]": 177,
      "[unused173]": 178,
      "[unused174]": 179,
      "[unused175]": 180,
      "[unused176]": 181,
      "[unused177]": 182,
      "[unused178]": 183,
      "[unused179]": 184,
      "[unused180]": 185,
      "[unused181]": 186,
      "[unused182]": 187,
      "[unused183]": 188,
      "[unused184]": 189,
      "[unused185]": 190,
      "[unused186]": 191,
      "[unused187]": 192,
      "[unused188]": 193,
      "[unused189]": 194,
      "[unused190]": 195,
      "[unused191]": 196,
      "[unused192]": 197,
      "[unused193]": 198,
      "[unused194]": 199,
      "[unused195]": 200,
      "[unused196]": 201,
      "[unused197]": 202,
      "[unused198]": 203,
      "[unused199]": 204,
      "[unused200]": 205,
      "[unused201]": 206,
      "[unused202]": 207,
      "[unused203]": 208,
      "[unused204]": 209,
      "[unused205]": 210,
      "[unused206]": 211,
      "[unused207]": 212,
      "[unused208]": 213,
      "[unused209]": 214,
      "[unused210]": 215,
      "[unused211]": 216,
      "[unused212]": 217,
      "[unused213]": 218,
      "[unused214]": 219,
      "[unused215]": 220,
      "[unused216]": 221,
      "[unused217]": 222,
      "[unused218]": 223,
      "[unused219]": 224,
      "[unused220]": 225,
      "[unused221]": 226,
      "[unused222]": 227,
      "[unused223]": 228,
      "[unused224]": 229,
      "[unused225]": 230,
      "[unused226]": 231,
      "[unused227]": 232,
      "[unused228]": 233,
      "[unused229]": 234,
      "[unused230]": 235,
      "[unused231]": 236,
      "[unused232]": 237,
      "[unused233]": 238,
      "[unused234]": 239,
      "[unused235]": 240,
      "[unused236]": 241,
      "[unused237]": 242,
      "[unused238]": 243,
      "[unused239]": 244,
      "[unused240]": 245,
      "[unused241]": 246,
      "[unused242]": 247,
      "[unused243]": 248,
      "[unused244]": 249,
      "[unused245]": 250,
      "[unused246]": 251,
      "[unused247]": 252,
      "[unused248]": 253,
      "[unused249]": 254,
      "[unused250]": 255,
      "[unused251]": 256,
      "[unused252]": 257,
      "[unused253]": 258,
      "[unused254]": 259,
      "[unused255]": 260,
      "[unused256]": 261,
      "[unused257]": 262,
      "[unused258]": 263,
      "[unused259]": 264,
      "[unused260]": 265,
      "[unused261]": 266,
      "[unused262]": 267,
      "[unused263]": 268,
      "[unused264]": 269,
      "[unused265]": 270,
      "[unused266]": 271,
      "[unused267]": 272,
      "[unused268]": 273,
      "[unused269]": 274,
      "[unused270]": 275,
      "[unused271]": 276,
      "[unused272]": 277,
      "[unused273]": 278,
      "[unused274]": 279,
      "[unused275]": 280,
      "[unused276]": 281,
      "[unused277]": 282,
      "[unused278]": 283,
      "[unused279]": 284,
      "[unused280]": 285,
      "[unused281]": 286,
      "[unused282]": 287,
      "[unused283]": 288,
      "[unused284]": 289,
      "[unused285]": 290,
      "[unused286]": 291,
      "[unused287]": 292,
      "[unused288]": 293,
      "[unused289]": 294,
      "[unused290]": 295,
      "[unused291]": 296,
      "[unused292]": 297,
      "[unused293]": 298,
      "[unused294]": 299,
      "[unused295]": 300,
      "[unused296]": 301,
      "[unused297]": 302,
      "[unused298]": 303,
      "[unused299]": 304,
      "[unused300]": 305,
      "[unused301]": 306,
      "[unused302]": 307,
      "[unused303]": 308,
      "[unused304]": 309,
      "[unused305]": 310,
      "[unused306]": 311,
      "[unused307]": 312,
      "[unused308]": 313,
      "[unused309]": 314,
      "[unused310]": 315,
      "[unused311]": 316,
      "[unused312]": 317,
      "[unused313]": 318,
      "[unused314]": 319,
      "[unused315]": 320,
      "[unused316]": 321,
      "[unused317]": 322,
      "[unused318]": 323,
      "[unused319]": 324,
      "[unused320]": 325,
      "[unused321]": 326,
      "[unused322]": 327,
      "[unused323]": 328,
      "[unused324]": 329,
      "[unused325]": 330,
      "[unused326]": 331,
      "[unused327]": 332,
      "[unused328]": 333,
      "[unused329]": 334,
      "[unused330]": 335,
      "[unused331]": 336,
      "[unused332]": 337,
      "[unused333]": 338,
      "[unused334]": 339,
      "[unused335]": 340,
      "[unused336]": 341,
      "[unused337]": 342,
      "[unused338]": 343,
      "[unused339]": 344,
      "[unused340]": 345,
      "[unused341]": 346,
      "[unused342]": 347,
      "[unused343]": 348,
      "[unused344]": 349,
      "[unused345]": 350,
      "[unused346]": 351,
      "[unused347]": 352,
      "[unused348]": 353,
      "[unused349]": 354,
      "[unused350]": 355,
      "[unused351]": 356,
      "[unused352]": 357,
      "[unused353]": 358,
      "[unused354]": 359,
      "[unused355]": 360,
      "[unused356]": 361,
      "[unused357]": 362,
      "[unused358]": 363,
      "[unused359]": 364,
      "[unused360]": 365,
      "[unused361]": 366,
      "[unused362]": 367,
      "[unused363]": 368,
      "[unused364]": 369,
      "[unused365]": 370,
      "[unused366]": 371,
      "[unused367]": 372,
      "[unused368]": 373,
      "[unused369]": 374,
      "[unused370]": 375,
      "[unused371]": 376,
      "[unused372]": 377,
      "[unused373]": 378,
      "[unused374]": 379,
      "[unused375]": 380,
      "[unused376]": 381,
      "[unused377]": 382,
      "[unused378]": 383,
      "[unused379]": 384,
      "[unused380]": 385,
      "[unused381]": 386,
      "[unused382]": 387,
      "[unused383]": 388,
      "[unused384]": 389,
      "[unused385]": 390,
      "[unused386]": 391,
      "[unused387]": 392,
      "[unused388]": 393,
      "[unused389]": 394,
      "[unused390]": 395,
      "[unused391]": 396,
      "[unused392]": 397,
      "[unused393]": 398,
      "[unused394]": 399,
      "[unused395]": 400,
      "[unused396]": 401,
      "[unused397]": 402,
      "[unused398]": 403,
      "[unused399]": 404,
      "[unused400]": 405,
      "[unused401]": 406,
      "[unused402]": 407,
      "[unused403]": 408,
      "[unused404]": 409,
      "[unused405]": 410,
      "[unused406]": 411,
      "[unused407]": 412,
      "[unused408]": 413,
      "[unused409]": 414,
      "[unused410]": 415,
      "[unused411]": 416,
      "[unused412]": 417,
      "[unused413]": 418,
      "[unused414]": 419,
      "[unused415]": 420,
      "[unused416]": 421,
      "[unused417]": 422,
      "[unused418]": 423,
      "[unused419]": 424,
      "[unused420]": 425,
      "[unused421]": 426,
      "[unused422]": 427,
      "[unused423]": 428,
      "[unused424]": 429,
      "[unused425]": 430,
      "[unused426]": 431,
      "[unused427]": 432,
      "[unused428]": 433,
      "[unused429]": 434,
      "[unused430]": 435,
      "[unused431]": 436,
      "[unused432]": 437,
      "[unused433]": 438,
      "[unused434]": 439,
      "[unused435]": 440,
      "[unused436]": 441,
      "[unused437]": 442,
      "[unused438]": 443,
      "[unused439]": 444,
      "[unused440]": 445,
      "[unused441]": 446,
      "[unused442]": 447,
      "[unused443]": 448,
      "[unused444]": 449,
      "[unused445]": 450,
      "[unused446]": 451,
      "[unused447]": 452,
      "[unused448]": 453,
      "[unused449]": 454,
      "[unused450]": 455,
      "[unused451]": 456,
      "[unused452]": 457,
      "[unused453]": 458,
      "[unused454]": 459,
      "[unused455]": 460,
      "[unused456]": 461,
      "[unused457]": 462,
      "[unused458]": 463,
      "[unused459]": 464,
      "[unused460]": 465,
      "[unused461]": 466,
      "[unused462]": 467,
      "[unused463]": 468,
      "[unused464]": 469,
      "[unused465]": 470,
      "[unused466]": 471,
      "[unused467]": 472,
      "[unused468]": 473,
      "[unused469]": 474,
      "[unused470]": 475,
      "[unused471]": 476,
      "[unused472]": 477,
      "[unused473]": 478,
      "[unused474]": 479,
      "[unused475]": 480,
      "[unused476]": 481,
      "[unused477]": 482,
      "[unused478]": 483,
      "[unused479]": 484,
      "[unused480]": 485,
      "[unused481]": 486,
      "[unused482]": 487,
      "[unused483]": 488,
      "[unused484]": 489,
      "[unused485]": 490,
      "[unused486]": 491,
      "[unused487]": 492,
      "[unused488]": 493,
      "[unused489]": 494,
      "[unused490]": 495,
      "[unused491]": 496,
      "[unused492]": 497,
      "[unused493]": 498,
      "[unused494]": 499,
      "[unused495]": 500,
      "[unused496]": 501,
      "[unused497]": 502,
      "[unused498]": 503,
      "[unused499]": 504,
      "[unused500]": 505,
      "[unused501]": 506,
      "[unused502]": 507,
      "[unused503]": 508,
      "[unused504]": 509,
      "[unused505]": 510,
      "[unused506]": 511,
      "[unused507]": 512,
      "[unused508]": 513,
      "[unused509]": 514,
      "[unused510]": 515,
      "[unused511]": 516,
      "[unused512]": 517,
      "[unused513]": 518,
      "[unused514]": 519,
      "[unused515]": 520,
      "[unused516]": 521,
      "[unused517]": 522,
      "[unused518]": 523,
      "[unused519]": 524,
      "[unused520]": 525,
      "[unused521]": 526,
      "[unused522]": 527,
      "[unused523]": 528,
      "[unused524]": 529,
      "[unused525]": 530,
      "[unused526]": 531,
      "[unused527]": 532,
      "[unused528]": 533,
      "[unused529]": 534,
      "[unused530]": 535,
      "[unused531]": 536,
      "[unused532]": 537,
      "[unused533]": 538,
      "[unused534]": 539,
      "[unused535]": 540,
      "[unused536]": 541,
      "[unused537]": 542,
      "[unused538]": 543,
      "[unused539]": 544,
      "[unused540]": 545,
      "[unused541]": 546,
      "[unused542]": 547,
      "[unused543]": 548,
      "[unused544]": 549,
      "[unused545]": 550,
      "[unused546]": 551,
      "[unused547]": 552,
      "[unused548]": 553,
      "[unused549]": 554,
      "[unused550]": 555,
      "[unused551]": 556,
      "[unused552]": 557,
      "[unused553]": 558,
      "[unused554]": 559,
      "[unused555]": 560,
      "[unused556]": 561,
      "[unused557]": 562,
      "[unused558]": 563,
      "[unused559]": 564,
      "[unused560]": 565,
      "[unused561]": 566,
      "[unused562]": 567,
      "[unused563]": 568,
      "[unused564]": 569,
      "[unused565]": 570,
      "[unused566]": 571,
      "[unused567]": 572,
      "[unused568]": 573,
      "[unused569]": 574,
      "[unused570]": 575,
      "[unused571]": 576,
      "[unused572]": 577,
      "[unused573]": 578,
      "[unused574]": 579,
      "[unused575]": 580,
      "[unused576]": 581,
      "[unused577]": 582,
      "[unused578]": 583,
      "[unused579]": 584,
      "[unused580]": 585,
      "[unused581]": 586,
      "[unused582]": 587,
      "[unused583]": 588,
      "[unused584]": 589,
      "[unused585]": 590,
      "[unused586]": 591,
      "[unused587]": 592,
      "[unused588]": 593,
      "[unused589]": 594,
      "[unused590]": 595,
      "[unused591]": 596,
      "[unused592]": 597,
      "[unused593]": 598,
      "[unused594]": 599,
      "[unused595]": 600,
      "[unused596]": 601,
      "[unused597]": 602,
      "[unused598]": 603,
      "[unused599]": 604,
      "[unused600]": 605,
      "[unused601]": 606,
      "[unused602]": 607,
      "[unused603]": 608,
      "[unused604]": 609,
      "[unused605]": 610,
      "[unused606]": 611,
      "[unused607]": 612,
      "[unused608]": 613,
      "[unused609]": 614,
      "[unused610]": 615,
      "[unused611]": 616,
      "[unused612]": 617,
      "[unused613]": 618,
      "[unused614]": 619,
      "[unused615]": 620,
      "[unused616]": 621,
      "[unused617]": 622,
      "[unused618]": 623,
      "[unused619]": 624,
      "[unused620]": 625,
      "[unused621]": 626,
      "[unused622]": 627,
      "[unused623]": 628,
      "[unused624]": 629,
      "[unused625]": 630,
      "[unused626]": 631,
      "[unused627]": 632,
      "[unused628]": 633,
      "[unused629]": 634,
      "[unused630]": 635,
      "[unused631]": 636,
      "[unused632]": 637,
      "[unused633]": 638,
      "[unused634]": 639,
      "[unused635]": 640,
      "[unused636]": 641,
      "[unused637]": 642,
      "[unused638]": 643,
      "[unused639]": 644,
      "[unused640]": 645,
      "[unused641]": 646,
      "[unused642]": 647,
      "[unused643]": 648,
      "[unused644]": 649,
      "[unused645]": 650,
      "[unused646]": 651,
      "[unused647]": 652,
      "[unused648]": 653,
      "[unused649]": 654,
      "[unused650]": 655,
      "[unused651]": 656,
      "[unused652]": 657,
      "[unused653]": 658,
      "[unused654]": 659,
      "[unused655]": 660,
      "[unused656]": 661,
      "[unused657]": 662,
      "[unused658]": 663,
      "[unused659]": 664,
      "[unused660]": 665,
      "[unused661]": 666,
      "[unused662]": 667,
      "[unused663]": 668,
      "[unused664]": 669,
      "[unused665]": 670,
      "[unused666]": 671,
      "[unused667]": 672,
      "[unused668]": 673,
      "[unused669]": 674,
      "[unused670]": 675,
      "[unused671]": 676,
      "[unused672]": 677,
      "[unused673]": 678,
      "[unused674]": 679,
      "[unused675]": 680,
      "[unused676]": 681,
      "[unused677]": 682,
      "[unused678]": 683,
      "[unused679]": 684,
      "[unused680]": 685,
      "[unused681]": 686,
      "[unused682]": 687,
      "[unused683]": 688,
      "[unused684]": 689,
      "[unused685]": 690,
      "[unused686]": 691,
      "[unused687]": 692,
      "[unused688]": 693,
      "[unused689]": 694,
      "[unused690]": 695,
      "[unused691]": 696,
      "[unused692]": 697,
      "[unused693]": 698,
      "[unused694]": 699,
      "[unused695]": 700,
      "[unused696]": 701,
      "[unused697]": 702,
      "[unused698]": 703,
      "[unused699]": 704,
      "[unused700]": 705,
      "[unused701]": 706,
      "[unused702]": 707,
      "[unused703]": 708,
      "[unused704]": 709,
      "[unused705]": 710,
      "[unused706]": 711,
      "[unused707]": 712,
      "[unused708]": 713,
      "[unused709]": 714,
      "[unused710]": 715,
      "[unused711]": 716,
      "[unused712]": 717,
      "[unused713]": 718,
      "[unused714]": 719,
      "[unused715]": 720,
      "[unused716]": 721,
      "[unused717]": 722,
      "[unused718]": 723,
      "[unused719]": 724,
      "[unused720]": 725,
      "[unused721]": 726,
      "[unused722]": 727,
      "[unused723]": 728,
      "[unused724]": 729,
      "[unused725]": 730,
      "[unused726]": 731,
      "[unused727]": 732,
      "[unused728]": 733,
      "[unused729]": 734,
      "[unused730]": 735,
      "[unused731]": 736,
      "[unused732]": 737,
      "[unused733]": 738,
      "[unused734]": 739,
      "[unused735]": 740,
      "[unused736]": 741,
      "[unused737]": 742,
      "[unused738]": 743,
      "[unused739]": 744,
      "[unused740]": 745,
      "[unused741]": 746,
      "[unused742]": 747,
      "[unused743]": 748,
      "[unused744]": 749,
      "[unused745]": 750,
      "[unused746]": 751,
      "[unused747]": 752,
      "[unused748]": 753,
      "[unused749]": 754,
      "[unused750]": 755,
      "[unused751]": 756,
      "[unused752]": 757,
      "[unused753]": 758,
      "[unused754]": 759,
      "[unused755]": 760,
      "[unused756]": 761,
      "[unused757]": 762,
      "[unused758]": 763,
      "[unused759]": 764,
      "[unused760]": 765,
      "[unused761]": 766,
      "[unused762]": 767,
      "[unused763]": 768,
      "[unused764]": 769,
      "[unused765]": 770,
      "[unused766]": 771,
      "[unused767]": 772,
      "[unused768]": 773,
      "[unused769]": 774,
      "[unused770]": 775,
      "[unused771]": 776,
      "[unused772]": 777,
      "[unused773]": 778,
      "[unused774]": 779,
      "[unused775]": 780,
      "[unused776]": 781,
      "[unused777]": 782,
      "[unused778]": 783,
      "[unused779]": 784,
      "[unused780]": 785,
      "[unused781]": 786,
      "[unused782]": 787,
      "[unused783]": 788,
      "[unused784]": 789,
      "[unused785]": 790,
      "[unused786]": 791,
      "[unused787]": 792,
      "[unused788]": 793,
      "[unused789]": 794,
      "[unused790]": 795,
      "[unused791]": 796,
      "[unused792]": 797,
      "[unused793]": 798,
      "[unused794]": 799,
      "[unused795]": 800,
      "[unused796]": 801,
      "[unused797]": 802,
      "[unused798]": 803,
      "[unused799]": 804,
      "[unused800]": 805,
      "[unused801]": 806,
      "[unused802]": 807,
      "[unused803]": 808,
      "[unused804]": 809,
      "[unused805]": 810,
      "[unused806]": 811,
      "[unused807]": 812,
      "[unused808]": 813,
      "[unused809]": 814,
      "[unused810]": 815,
      "[unused811]": 816,
      "[unused812]": 817,
      "[unused813]": 818,
      "[unused814]": 819,
      "[unused815]": 820,
      "[unused816]": 821,
      "[unused817]": 822,
      "[unused818]": 823,
      "[unused819]": 824,
      "[unused820]": 825,
      "[unused821]": 826,
      "[unused822]": 827,
      "[unused823]": 828,
      "[unused824]": 829,
      "[unused825]": 830,
      "[unused826]": 831,
      "[unused827]": 832,
      "[unused828]": 833,
      "[unused829]": 834,
      "[unused830]": 835,
      "[unused831]": 836,
      "[unused832]": 837,
      "[unused833]": 838,
      "[unused834]": 839,
      "[unused835]": 840,
      "[unused836]": 841,
      "[unused837]": 842,
      "[unused838]": 843,
      "[unused839]": 844,
      "[unused840]": 845,
      "[unused841]": 846,
      "[unused842]": 847,
      "[unused843]": 848,
      "[unused844]": 849,
      "[unused845]": 850,
      "[unused846]": 851,
      "[unused847]": 852,
      "[unused848]": 853,
      "[unused849]": 854,
      "[unused850]": 855,
      "[unused851]": 856,
      "[unused852]": 857,
      "[unused853]": 858,
      "[unused854]": 859,
      "[unused855]": 860,
      "[unused856]": 861,
      "[unused857]": 862,
      "[unused858]": 863,
      "[unused859]": 864,
      "[unused860]": 865,
      "[unused861]": 866,
      "[unused862]": 867,
      "[unused863]": 868,
      "[unused864]": 869,
      "[unused865]": 870,
      "[unused866]": 871,
      "[unused867]": 872,
      "[unused868]": 873,
      "[unused869]": 874,
      "[unused870]": 875,
      "[unused871]": 876,
      "[unused872]": 877,
      "[unused873]": 878,
      "[unused874]": 879,
      "[unused875]": 880,
      "[unused876]": 881,
      "[unused877]": 882,
      "[unused878]": 883,
      "[unused879]": 884,
      "[unused880]": 885,
      "[unused881]": 886,
      "[unused882]": 887,
      "[unused883]": 888,
      "[unused884]": 889,
      "[unused885]": 890,
      "[unused886]": 891,
      "[unused887]": 892,
      "[unused888]": 893,
      "[unused889]": 894,
      "[unused890]": 895,
      "[unused891]": 896,
      "[unused892]": 897,
      "[unused893]": 898,
      "[unused894]": 899,
      "[unused895]": 900,
      "[unused896]": 901,
      "[unused897]": 902,
      "[unused898]": 903,
      "[unused899]": 904,
      "[unused900]": 905,
      "[unused901]": 906,
      "[unused902]": 907,
      "[unused903]": 908,
      "[unused904]": 909,
      "[unused905]": 910,
      "[unused906]": 911,
      "[unused907]": 912,
      "[unused908]": 913,
      "[unused909]": 914,
      "[unused910]": 915,
      "[unused911]": 916,
      "[unused912]": 917,
      "[unused913]": 918,
      "[unused914]": 919,
      "[unused915]": 920,
      "[unused916]": 921,
      "[unused917]": 922,
      "[unused918]": 923,
      "[unused919]": 924,
      "[unused920]": 925,
      "[unused921]": 926,
      "[unused922]": 927,
      "[unused923]": 928,
      "[unused924]": 929,
      "[unused925]": 930,
      "[unused926]": 931,
      "[unused927]": 932,
      "[unused928]": 933,
      "[unused929]": 934,
      "[unused930]": 935,
      "[unused931]": 936,
      "[unused932]": 937,
      "[unused933]": 938,
      "[unused934]": 939,
      "[unused935]": 940,
      "[unused936]": 941,
      "[unused937]": 942,
      "[unused938]": 943,
      "[unused939]": 944,
      "[unused940]": 945,
      "[unused941]": 946,
      "[unused942]": 947,
      "[unused943]": 948,
      "[unused944]": 949,
      "[unused945]": 950,
      "[unused946]": 951,
      "[unused947]": 952,
      "[unused948]": 953,
      "[unused949]": 954,
      "[unused950]": 955,
      "[unused951]": 956,
      "[unused952]": 957,
      "[unused953]": 958,
      "[unused954]": 959,
      "[unused955]": 960,
      "[unused956]": 961,
      "[unused957]": 962,
      "[unused958]": 963,
      "[unused959]": 964,
      "[unused960]": 965,
      "[unused961]": 966,
      "[unused962]": 967,
      "[unused963]": 968,
      "[unused964]": 969,
      "[unused965]": 970,
      "[unused966]": 971,
      "[unused967]": 972,
      "[unused968]": 973,
      "[unused969]": 974,
      "[unused970]": 975,
      "[unused971]": 976,
      "[unused972]": 977,
      "[unused973]": 978,
      "[unused974]": 979,
      "[unused975]": 980,
      "[unused976]": 981,
      "[unused977]": 982,
      "[unused978]": 983,
      "[unused979]": 984,
      "[unused980]": 985,
      "[unused981]": 986,
      "[unused982]": 987,
      "[unused983]": 988,
      "[unused984]": 989,
      "[unused985]": 990,
      "[unused986]": 991,
      "[unused987]": 992,
      "[unused988]": 993,
      "[unused989]": 994,
      "[unused990]": 995,
      "[unused991]": 996,
      "[unused992]": 997,
      "[unused993]": 998,
      "!": 999,
      "\"": 1000,
      "#": 1001,
      "$": 1002,
      "%": 1003,
      "&": 1004,
      "'": 1005,
      "(": 1006,
      ")": 1007,
      "*": 1008,
      "+": 1009,
      ",": 1010,
      "-": 1011,
      ".": 1012,
      "/": 1013,
      "0": 1014,
      "1": 1015,
      "2": 1016,
      "3": 1017,
      "4": 1018,
      "5": 1019,
      "6": 1020,
      "7": 1021,
      "8": 1022,
      "9": 1023,
      ":": 1024,
      ";": 1025,
      "<": 1026,
      "=": 1027,
      ">": 1028,
      "?": 1029,
      "@": 1030,
      "[": 1031,
      "\\": 1032,
      "]": 1033,
      "^": 1034,
      "_": 1035,
      "`": 1036,
      "a": 1037,
      "b": 1038,
      "c": 1039,
      "d": 1040,
      "e": 1041,
      "f": 1042,
      "g": 1043,
      "h": 1044,
      "i": 1045,
      "j": 1046,
      "k": 1047,
      "l": 1048,
      "m": 1049,
      "n": 1050,
      "o": 1051,
      "p": 1052,
      "q": 1053,
      "r": 1054,
      "s": 1055,
      "t": 1056,
      "u": 1057,
      "v": 1058,
      "w": 1059,
      "x": 1060,
      "y": 1061,
      "z": 1062,
      "{": 1063,
      "|": 1064,
      "}": 1065,
      "~": 1066,
      "¡": 1067,
      "¢": 1068,
      "£": 1069,
      "¤": 1070,
      "¥": 1071,
      "¦": 1072,
      "§": 1073,
      "¨": 1074,
      "©": 1075,
      "ª": 1076,
      "«": 1077,
      "¬": 1078,
      "®": 1079,
      "°": 1080,
      "±": 1081,
      "²": 1082,
      "³": 1083,
      "´": 1084,
      "µ": 1085,
      "¶": 1086,
      "·": 1087,
      "¹": 1088,
      "º": 1089,
      "»": 1090,
      "¼": 1091,
      "½": 1092,
      "¾": 1093,
      "¿": 1094,
      "×": 1095,
      "ß": 1096,
      "æ": 1097,
      "ð": 1098,
      "÷": 1099,
      "ø": 1100,
      "þ": 1101,
      "đ": 1102,
      "ħ": 1103,
      "ı": 1104,
      "ł": 1105,
      "ŋ": 1106,
      "œ": 1107,
      "ƒ": 1108,
      "ɐ": 1109,
      "ɑ": 1110,
      "ɒ": 1111,
      "ɔ": 1112,
      "ɕ": 1113,
      "ə": 1114,
      "ɛ": 1115,
      "ɡ": 1116,
      "ɣ": 1117,
      "ɨ": 1118,
      "ɪ": 1119,
      "ɫ": 1120,
      "ɬ": 1121,
      "ɯ": 1122,
      "ɲ": 1123,
      "ɴ": 1124,
      "ɹ": 1125,
      "ɾ": 1126,
      "ʀ": 1127,
      "ʁ": 1128,
      "ʂ": 1129,
      "ʃ": 1130,
      "ʉ": 1131,
      "ʊ": 1132,
      "ʋ": 1133,
      "ʌ": 1134,
      "ʎ": 1135,
      "ʐ": 1136,
      "ʑ": 1137,
      "ʒ": 1138,
      "ʔ": 1139,
      "ʰ": 1140,
      "ʲ": 1141,
      "ʳ": 1142,
      "ʷ": 1143,
      "ʸ": 1144,
      "ʻ": 1145,
      "ʼ": 1146,
      "ʾ": 1147,
      "ʿ": 1148,
      "ˈ": 1149,
      "ː": 1150,
      "ˡ": 1151,
      "ˢ": 1152,
      "ˣ": 1153,
      "ˤ": 1154,
      "α": 1155,
      "β": 1156,
      "γ": 1157,
      "δ": 1158,
      "ε": 1159,
      "ζ": 1160,
      "η": 1161,
      "θ": 1162,
      "ι": 1163,
      "κ": 1164,
      "λ": 1165,
      "μ": 1166,
      "ν": 1167,
      "ξ": 1168,
      "ο": 1169,
      "π": 1170,
      "ρ": 1171,
      "ς": 1172,
      "σ": 1173,
      "τ": 1174,
      "υ": 1175,
      "φ": 1176,
      "χ": 1177,
      "ψ": 1178,
      "ω": 1179,
      "а": 1180,
      "б": 1181,
      "в": 1182,
      "г": 1183,
      "д": 1184,
      "е": 1185,
      "ж": 1186,
      "з": 1187,
      "и": 1188,
      "к": 1189,
      "л": 1190,
      "м": 1191,
      "н": 1192,
      "о": 1193,
      "п": 1194,
      "р": 1195,
      "с": 1196,
      "т": 1197,
      "у": 1198,
      "ф": 1199,
      "х": 1200,
      "ц": 1201,
      "ч": 1202,
      "ш": 1203,
      "щ": 1204,
      "ъ": 1205,
      "ы": 1206,
      "ь": 1207,
      "э": 1208,
      "ю": 1209,
      "я": 1210,
      "ђ": 1211,
      "є": 1212,
      "і": 1213,
      "ј": 1214,
      "љ": 1215,
      "њ": 1216,
      "ћ": 1217,
      "ӏ": 1218,
      "ա": 1219,
      "բ": 1220,
      "գ": 1221,
      "դ": 1222,
      "ե": 1223,
      "թ": 1224,
      "ի": 1225,
      "լ": 1226,
      "կ": 1227,
      "հ": 1228,
      "մ": 1229,
      "յ": 1230,
      "ն": 1231,
      "ո": 1232,
      "պ": 1233,
      "ս": 1234,
      "վ": 1235,
      "տ": 1236,
      "ր": 1237,
      "ւ": 1238,
      "ք": 1239,
      "־": 1240,
      "א": 1241,
      "ב": 1242,
      "ג": 1243,
      "ד": 1244,
      "ה": 1245,
      "ו": 1246,
      "ז": 1247,
      "ח": 1248,
      "ט": 1249,
      "י": 1250,
      "ך": 1251,
      "כ": 1252,
      "ל": 1253,
      "ם": 1254,
      "מ": 1255,
      "ן": 1256,
      "נ": 1257,
      "ס": 1258,
      "ע": 1259,
      "ף": 1260,
      "פ": 1261,
      "ץ": 1262,
      "צ": 1263,
      "ק": 1264,
      "ר": 1265,
      "ש": 1266,
      "ת": 1267,
      "،": 1268,
      "ء": 1269,
      "ا": 1270,
      "ب": 1271,
      "ة": 1272,
      "ت": 1273,
      "ث": 1274,
      "ج": 1275,
      "ح": 1276,
      "خ": 1277,
      "د": 1278,
      "ذ": 1279,
      "ر": 1280,
      "ز": 1281,
      "س": 1282,
      "ش": 1283,
      "ص": 1284,
      "ض": 1285,
      "ط": 1286,
      "ظ": 1287,
      "ع": 1288,
      "غ": 1289,
      "ـ": 1290,
      "ف": 1291,
      "ق": 1292,
      "ك": 1293,
      "ل": 1294,
      "م": 1295,
      "ن": 1296,
      "ه": 1297,
      "و": 1298,
      "ى": 1299,
      "ي": 1300,
      "ٹ": 1301,
      "پ": 1302,
      "چ": 1303,
      "ک": 1304,
      "گ": 1305,
      "ں": 1306,
      "ھ": 1307,
      "ہ": 1308,
      "ی": 1309,
      "ے": 1310,
      "अ": 1311,
      "आ": 1312,
      "उ": 1313,
      "ए": 1314,
      "क": 1315,
      "ख": 1316,
      "ग": 1317,
      "च": 1318,
      "ज": 1319,
      "ट": 1320,
      "ड": 1321,
      "ण": 1322,
      "त": 1323,
      "थ": 1324,
      "द": 1325,
      "ध": 1326,
      "न": 1327,
      "प": 1328,
      "ब": 1329,
      "भ": 1330,
      "म": 1331,
      "य": 1332,
      "र": 1333,
      "ल": 1334,
      "व": 1335,
      "श": 1336,
      "ष": 1337,
      "स": 1338,
      "ह": 1339,
      "ा": 1340,
      "ि": 1341,
      "ी": 1342,
      "ो": 1343,
      "।": 1344,
      "॥": 1345,
      "ং": 1346,
      "অ": 1347,
      "আ": 1348,
      "ই": 1349,
      "উ": 1350,
      "এ": 1351,
      "ও": 1352,
      "ক": 1353,
      "খ": 1354,
      "গ": 1355,
      "চ": 1356,
      "ছ": 1357,
      "জ": 1358,
      "ট": 1359,
      "ড": 1360,
      "ণ": 1361,
      "ত": 1362,
      "থ": 1363,
      "দ": 1364,
      "ধ": 1365,
      "ন": 1366,
      "প": 1367,
      "ব": 1368,
      "ভ": 1369,
      "ম": 1370,
      "য": 1371,
      "র": 1372,
      "ল": 1373,
      "শ": 1374,
      "ষ": 1375,
      "স": 1376,
      "হ": 1377,
      "া": 1378,
      "ি": 1379,
      "ী": 1380,
      "ে": 1381,
      "க": 1382,
      "ச": 1383,
      "ட": 1384,
      "த": 1385,
      "ந": 1386,
      "ன": 1387,
      "ப": 1388,
      "ம": 1389,
      "ய": 1390,
      "ர": 1391,
      "ல": 1392,
      "ள": 1393,
      "வ": 1394,
      "ா": 1395,
      "ி": 1396,
      "ு": 1397,
      "ே": 1398,
      "ை": 1399,
      "ನ": 1400,
      "ರ": 1401,
      "ಾ": 1402,
      "ක": 1403,
      "ය": 1404,
      "ර": 1405,
      "ල": 1406,
      "ව": 1407,
      "ා": 1408,
      "ก": 1409,
      "ง": 1410,
      "ต": 1411,
      "ท": 1412,
      "น": 1413,
      "พ": 1414,
      "ม": 1415,
      "ย": 1416,
      "ร": 1417,
      "ล": 1418,
      "ว": 1419,
      "ส": 1420,
      "อ": 1421,
      "า": 1422,
      "เ": 1423,
      "་": 1424,
      "།": 1425,
      "ག": 1426,
      "ང": 1427,
      "ད": 1428,
      "ན": 1429,
      "པ": 1430,
      "བ": 1431,
      "མ": 1432,
      "འ": 1433,
      "ར": 1434,
      "ལ": 1435,
      "ས": 1436,
      "မ": 1437,
      "ა": 1438,
      "ბ": 1439,
      "გ": 1440,
      "დ": 1441,
      "ე": 1442,
      "ვ": 1443,
      "თ": 1444,
      "ი": 1445,
      "კ": 1446,
      "ლ": 1447,
      "მ": 1448,
      "ნ": 1449,
      "ო": 1450,
      "რ": 1451,
      "ს": 1452,
      "ტ": 1453,
      "უ": 1454,
      "ᄀ": 1455,
      "ᄂ": 1456,
      "ᄃ": 1457,
      "ᄅ": 1458,
      "ᄆ": 1459,
      "ᄇ": 1460,
      "ᄉ": 1461,
      "ᄊ": 1462,
      "ᄋ": 1463,
      "ᄌ": 1464,
      "ᄎ": 1465,
      "ᄏ": 1466,
      "ᄐ": 1467,
      "ᄑ": 1468,
      "ᄒ": 1469,
      "ᅡ": 1470,
      "ᅢ": 1471,
      "ᅥ": 1472,
      "ᅦ": 1473,
      "ᅧ": 1474,
      "ᅩ": 1475,
      "ᅪ": 1476,
      "ᅭ": 1477,
      "ᅮ": 1478,
      "ᅯ": 1479,
      "ᅲ": 1480,
      "ᅳ": 1481,
      "ᅴ": 1482,
      "ᅵ": 1483,
      "ᆨ": 1484,
      "ᆫ": 1485,
      "ᆯ": 1486,
      "ᆷ": 1487,
      "ᆸ": 1488,
      "ᆼ": 1489,
      "ᴬ": 1490,
      "ᴮ": 1491,
      "ᴰ": 1492,
      "ᴵ": 1493,
      "ᴺ": 1494,
      "ᵀ": 1495,
      "ᵃ": 1496,
      "ᵇ": 1497,
      "ᵈ": 1498,
      "ᵉ": 1499,
      "ᵍ": 1500,
      "ᵏ": 1501,
      "ᵐ": 1502,
      "ᵒ": 1503,
      "ᵖ": 1504,
      "ᵗ": 1505,
      "ᵘ": 1506,
      "ᵢ": 1507,
      "ᵣ": 1508,
      "ᵤ": 1509,
      "ᵥ": 1510,
      "ᶜ": 1511,
      "ᶠ": 1512,
      "‐": 1513,
      "‑": 1514,
      "‒": 1515,
      "–": 1516,
      "—": 1517,
      "―": 1518,
      "‖": 1519,
      "‘": 1520,
      "’": 1521,
      "‚": 1522,
      "“": 1523,
      "”": 1524,
      "„": 1525,
      "†": 1526,
      "‡": 1527,
      "•": 1528,
      "…": 1529,
      "‰": 1530,
      "′": 1531,
      "″": 1532,
      "›": 1533,
      "‿": 1534,
      "⁄": 1535,
      "⁰": 1536,
      "ⁱ": 1537,
      "⁴": 1538,
      "⁵": 1539,
      "⁶": 1540,
      "⁷": 1541,
      "⁸": 1542,
      "⁹": 1543,
      "⁺": 1544,
      "⁻": 1545,
      "ⁿ": 1546,
      "₀": 1547,
      "₁": 1548,
      "₂": 1549,
      "₃": 1550,
      "₄": 1551,
      "₅": 1552,
      "₆": 1553,
      "₇": 1554,
      "₈": 1555,
      "₉": 1556,
      "₊": 1557,
      "₍": 1558,
      "₎": 1559,
      "ₐ": 1560,
      "ₑ": 1561,
      "ₒ": 1562,
      "ₓ": 1563,
      "ₕ": 1564,
      "ₖ": 1565,
      "ₗ": 1566,
      "ₘ": 1567,
      "ₙ": 1568,
      "ₚ": 1569,
      "ₛ": 1570,
      "ₜ": 1571,
      "₤": 1572,
      "₩": 1573,
      "€": 1574,
      "₱": 1575,
      "₹": 1576,
      "ℓ": 1577,
      "№": 1578,
      "ℝ": 1579,
      "™": 1580,
      "⅓": 1581,
      "⅔": 1582,
      "←": 1583,
      "↑": 1584,
      "→": 1585,
      "↓": 1586,
      "↔": 1587,
      "↦": 1588,
      "⇄": 1589,
      "⇌": 1590,
      "⇒": 1591,
      "∂": 1592,
      "∅": 1593,
      "∆": 1594,
      "∇": 1595,
      "∈": 1596,
      "−": 1597,
      "∗": 1598,
      "∘": 1599,
      "√": 1600,
      "∞": 1601,
      "∧": 1602,
      "∨": 1603,
      "∩": 1604,
      "∪": 1605,
      "≈": 1606,
      "≡": 1607,
      "≤": 1608,
      "≥": 1609,
      "⊂": 1610,
      "⊆": 1611,
      "⊕": 1612,
      "⊗": 1613,
      "⋅": 1614,
      "─": 1615,
      "│": 1616,
      "■": 1617,
      "▪": 1618,
      "●": 1619,
      "★": 1620,
      "☆": 1621,
      "☉": 1622,
      "♠": 1623,
      "♣": 1624,
      "♥": 1625,
      "♦": 1626,
      "♭": 1627,
      "♯": 1628,
      "⟨": 1629,
      "⟩": 1630,
      "ⱼ": 1631,
      "⺩": 1632,
      "⺼": 1633,
      "⽥": 1634,
      "、": 1635,
      "。": 1636,
      "〈": 1637,
      "〉": 1638,
      "《": 1639,
      "》": 1640,
      "「": 1641,
      "」": 1642,
      "『": 1643,
      "』": 1644,
      "〜": 1645,
      "あ": 1646,
      "い": 1647,
      "う": 1648,
      "え": 1649,
      "お": 1650,
      "か": 1651,
      "き": 1652,
      "く": 1653,
      "け": 1654,
      "こ": 1655,
      "さ": 1656,
      "し": 1657,
      "す": 1658,
      "せ": 1659,
      "そ": 1660,
      "た": 1661,
      "ち": 1662,
      "っ": 1663,
      "つ": 1664,
      "て": 1665,
      "と": 1666,
      "な": 1667,
      "に": 1668,
      "ぬ": 1669,
      "ね": 1670,
      "の": 1671,
      "は": 1672,
      "ひ": 1673,
      "ふ": 1674,
      "へ": 1675,
      "ほ": 1676,
      "ま": 1677,
      "み": 1678,
      "む": 1679,
      "め": 1680,
      "も": 1681,
      "や": 1682,
      "ゆ": 1683,
      "よ": 1684,
      "ら": 1685,
      "り": 1686,
      "る": 1687,
      "れ": 1688,
      "ろ": 1689,
      "を": 1690,
      "ん": 1691,
      "ァ": 1692,
      "ア": 1693,
      "ィ": 1694,
      "イ": 1695,
      "ウ": 1696,
      "ェ": 1697,
      "エ": 1698,
      "オ": 1699,
      "カ": 1700,
      "キ": 1701,
      "ク": 1702,
      "ケ": 1703,
      "コ": 1704,
      "サ": 1705,
      "シ": 1706,
      "ス": 1707,
      "セ": 1708,
      "タ": 1709,
      "チ": 1710,
      "ッ": 1711,
      "ツ": 1712,
      "テ": 1713,
      "ト": 1714,
      "ナ": 1715,
      "ニ": 1716,
      "ノ": 1717,
      "ハ": 1718,
      "ヒ": 1719,
      "フ": 1720,
      "ヘ": 1721,
      "ホ": 1722,
      "マ": 1723,
      "ミ": 1724,
      "ム": 1725,
      "メ": 1726,
      "モ": 1727,
      "ャ": 1728,
      "ュ": 1729,
      "ョ": 1730,
      "ラ": 1731,
      "リ": 1732,
      "ル": 1733,
      "レ": 1734,
      "ロ": 1735,
      "ワ": 1736,
      "ン": 1737,
      "・": 1738,
      "ー": 1739,
      "一": 1740,
      "三": 1741,
      "上": 1742,
      "下": 1743,
      "不": 1744,
      "世": 1745,
      "中": 1746,
      "主": 1747,
      "久": 1748,
      "之": 1749,
      "也": 1750,
      "事": 1751,
      "二": 1752,
      "五": 1753,
      "井": 1754,
      "京": 1755,
      "人": 1756,
      "亻": 1757,
      "仁": 1758,
      "介": 1759,
      "代": 1760,
      "仮": 1761,
      "伊": 1762,
      "会": 1763,
      "佐": 1764,
      "侍": 1765,
      "保": 1766,
      "信": 1767,
      "健": 1768,
      "元": 1769,
      "光": 1770,
      "八": 1771,
      "公": 1772,
      "内": 1773,
      "出": 1774,
      "分": 1775,
      "前": 1776,
      "劉": 1777,
      "力": 1778,
      "加": 1779,
      "勝": 1780,
      "北": 1781,
      "区": 1782,
      "十": 1783,
      "千": 1784,
      "南": 1785,
      "博": 1786,
      "原": 1787,
      "口": 1788,
      "古": 1789,
      "史": 1790,
      "司": 1791,
      "合": 1792,
      "吉": 1793,
      "同": 1794,
      "名": 1795,
      "和": 1796,
      "囗": 1797,
      "四": 1798,
      "国": 1799,
      "國": 1800,
      "土": 1801,
      "地": 1802,
      "坂": 1803,
      "城": 1804,
      "堂": 1805,
      "場": 1806,
      "士": 1807,
      "夏": 1808,
      "外": 1809,
      "大": 1810,
      "天": 1811,
      "太": 1812,
      "夫": 1813,
      "奈": 1814,
      "女": 1815,
      "子": 1816,
      "学": 1817,
      "宀": 1818,
      "宇": 1819,
      "安": 1820,
      "宗": 1821,
      "定": 1822,
      "宣": 1823,
      "宮": 1824,
      "家": 1825,
      "宿": 1826,
      "寺": 1827,
      "將": 1828,
      "小": 1829,
      "尚": 1830,
      "山": 1831,
      "岡": 1832,
      "島": 1833,
      "崎": 1834,
      "川": 1835,
      "州": 1836,
      "巿": 1837,
      "帝": 1838,
      "平": 1839,
      "年": 1840,
      "幸": 1841,
      "广": 1842,
      "弘": 1843,
      "張": 1844,
      "彳": 1845,
      "後": 1846,
      "御": 1847,
      "德": 1848,
      "心": 1849,
      "忄": 1850,
      "志": 1851,
      "忠": 1852,
      "愛": 1853,
      "成": 1854,
      "我": 1855,
      "戦": 1856,
      "戸": 1857,
      "手": 1858,
      "扌": 1859,
      "政": 1860,
      "文": 1861,
      "新": 1862,
      "方": 1863,
      "日": 1864,
      "明": 1865,
      "星": 1866,
      "春": 1867,
      "昭": 1868,
      "智": 1869,
      "曲": 1870,
      "書": 1871,
      "月": 1872,
      "有": 1873,
      "朝": 1874,
      "木": 1875,
      "本": 1876,
      "李": 1877,
      "村": 1878,
      "東": 1879,
      "松": 1880,
      "林": 1881,
      "森": 1882,
      "楊": 1883,
      "樹": 1884,
      "橋": 1885,
      "歌": 1886,
      "止": 1887,
      "正": 1888,
      "武": 1889,
      "比": 1890,
      "氏": 1891,
      "民": 1892,
      "水": 1893,
      "氵": 1894,
      "氷": 1895,
      "永": 1896,
      "江": 1897,
      "沢": 1898,
      "河": 1899,
      "治": 1900,
      "法": 1901,
      "海": 1902,
      "清": 1903,
      "漢": 1904,
      "瀬": 1905,
      "火": 1906,
      "版": 1907,
      "犬": 1908,
      "王": 1909,
      "生": 1910,
      "田": 1911,
      "男": 1912,
      "疒": 1913,
      "発": 1914,
      "白": 1915,
      "的": 1916,
      "皇": 1917,
      "目": 1918,
      "相": 1919,
      "省": 1920,
      "真": 1921,
      "石": 1922,
      "示": 1923,
      "社": 1924,
      "神": 1925,
      "福": 1926,
      "禾": 1927,
      "秀": 1928,
      "秋": 1929,
      "空": 1930,
      "立": 1931,
      "章": 1932,
      "竹": 1933,
      "糹": 1934,
      "美": 1935,
      "義": 1936,
      "耳": 1937,
      "良": 1938,
      "艹": 1939,
      "花": 1940,
      "英": 1941,
      "華": 1942,
      "葉": 1943,
      "藤": 1944,
      "行": 1945,
      "街": 1946,
      "西": 1947,
      "見": 1948,
      "訁": 1949,
      "語": 1950,
      "谷": 1951,
      "貝": 1952,
      "貴": 1953,
      "車": 1954,
      "軍": 1955,
      "辶": 1956,
      "道": 1957,
      "郎": 1958,
      "郡": 1959,
      "部": 1960,
      "都": 1961,
      "里": 1962,
      "野": 1963,
      "金": 1964,
      "鈴": 1965,
      "镇": 1966,
      "長": 1967,
      "門": 1968,
      "間": 1969,
      "阝": 1970,
      "阿": 1971,
      "陳": 1972,
      "陽": 1973,
      "雄": 1974,
      "青": 1975,
      "面": 1976,
      "風": 1977,
      "食": 1978,
      "香": 1979,
      "馬": 1980,
      "高": 1981,
      "龍": 1982,
      "龸": 1983,
      "ﬁ": 1984,
      "ﬂ": 1985,
      "！": 1986,
      "（": 1987,
      "）": 1988,
      "，": 1989,
      "－": 1990,
      "．": 1991,
      "／": 1992,
      "：": 1993,
      "？": 1994,
      "～": 1995,
      "the": 1996,
      "of": 1997,
      "and": 1998,
      "in": 1999,
      "to": 2000,
      "was": 2001,
      "he": 2002,
      "is": 2003,
      "as": 2004,
      "for": 2005,
      "on": 2006,
      "with": 2007,
      "that": 2008,
      "it": 2009,
      "his": 2010,
      "by": 2011,
      "at": 2012,
      "from": 2013,
      "her": 2014,
      "##s": 2015,
      "she": 2016,
      "you": 2017,
      "had": 2018,
      "an": 2019,
      "were": 2020,
      "but": 2021,
      "be": 2022,
      "this": 2023,
      "are": 2024,
      "not": 2025,
      "my": 2026,
      "they": 2027,
      "one": 2028,
      "which": 2029,
      "or": 2030,
      "have": 2031,
      "him": 2032,
      "me": 2033,
      "first": 2034,
      "all": 2035,
      "also": 2036,
      "their": 2037,
      "has": 2038,
      "up": 2039,
      "who": 2040,
      "out": 2041,
      "been": 2042,
      "when": 2043,
      "after": 2044,
      "there": 2045,
      "into": 2046,
      "new": 2047,
      "two": 2048,
      "its": 2049,
      "##a": 2050,
      "time": 2051,
      "would": 2052,
      "no": 2053,
      "what": 2054,
      "about": 2055,
      "said": 2056,
      "we": 2057,
      "over": 2058,
      "then": 2059,
      "other": 2060,
      "so": 2061,
      "more": 2062,
      "##e": 2063,
      "can": 2064,
      "if": 2065,
      "like": 2066,
      "back": 2067,
      "them": 2068,
      "only": 2069,
      "some": 2070,
      "could": 2071,
      "##i": 2072,
      "where": 2073,
      "just": 2074,
      "##ing": 2075,
      "during": 2076,
      "before": 2077,
      "##n": 2078,
      "do": 2079,
      "##o": 2080,
      "made": 2081,
      "school": 2082,
      "through": 2083,
      "than": 2084,
      "now": 2085,
      "years": 2086,
      "most": 2087,
      "world": 2088,
      "may": 2089,
      "between": 2090,
      "down": 2091,
      "well": 2092,
      "three": 2093,
      "##d": 2094,
      "year": 2095,
      "while": 2096,
      "will": 2097,
      "##ed": 2098,
      "##r": 2099,
      "##y": 2100,
      "later": 2101,
      "##t": 2102,
      "city": 2103,
      "under": 2104,
      "around": 2105,
      "did": 2106,
      "such": 2107,
      "being": 2108,
      "used": 2109,
      "state": 2110,
      "people": 2111,
      "part": 2112,
      "know": 2113,
      "against": 2114,
      "your": 2115,
      "many": 2116,
      "second": 2117,
      "university": 2118,
      "both": 2119,
      "national": 2120,
      "##er": 2121,
      "these": 2122,
      "don": 2123,
      "known": 2124,
      "off": 2125,
      "way": 2126,
      "until": 2127,
      "re": 2128,
      "how": 2129,
      "even": 2130,
      "get": 2131,
      "head": 2132,
      "...": 2133,
      "didn": 2134,
      "##ly": 2135,
      "team": 2136,
      "american": 2137,
      "because": 2138,
      "de": 2139,
      "##l": 2140,
      "born": 2141,
      "united": 2142,
      "film": 2143,
      "since": 2144,
      "still": 2145,
      "long": 2146,
      "work": 2147,
      "south": 2148,
      "us": 2149,
      "became": 2150,
      "any": 2151,
      "high": 2152,
      "again": 2153,
      "day": 2154,
      "family": 2155,
      "see": 2156,
      "right": 2157,
      "man": 2158,
      "eyes": 2159,
      "house": 2160,
      "season": 2161,
      "war": 2162,
      "states": 2163,
      "including": 2164,
      "took": 2165,
      "life": 2166,
      "north": 2167,
      "same": 2168,
      "each": 2169,
      "called": 2170,
      "name": 2171,
      "much": 2172,
      "place": 2173,
      "however": 2174,
      "go": 2175,
      "four": 2176,
      "group": 2177,
      "another": 2178,
      "found": 2179,
      "won": 2180,
      "area": 2181,
      "here": 2182,
      "going": 2183,
      "10": 2184,
      "away": 2185,
      "series": 2186,
      "left": 2187,
      "home": 2188,
      "music": 2189,
      "best": 2190,
      "make": 2191,
      "hand": 2192,
      "number": 2193,
      "company": 2194,
      "several": 2195,
      "never": 2196,
      "last": 2197,
      "john": 2198,
      "000": 2199,
      "very": 2200,
      "album": 2201,
      "take": 2202,
      "end": 2203,
      "good": 2204,
      "too": 2205,
      "following": 2206,
      "released": 2207,
      "game": 2208,
      "played": 2209,
      "little": 2210,
      "began": 2211,
      "district": 2212,
      "##m": 2213,
      "old": 2214,
      "want": 2215,
      "those": 2216,
      "side": 2217,
      "held": 2218,
      "own": 2219,
      "early": 2220,
      "county": 2221,
      "ll": 2222,
      "league": 2223,
      "use": 2224,
      "west": 2225,
      "##u": 2226,
      "face": 2227,
      "think": 2228,
      "##es": 2229,
      "2010": 2230,
      "government": 2231,
      "##h": 2232,
      "march": 2233,
      "came": 2234,
      "small": 2235,
      "general": 2236,
      "town": 2237,
      "june": 2238,
      "##on": 2239,
      "line": 2240,
      "based": 2241,
      "something": 2242,
      "##k": 2243,
      "september": 2244,
      "thought": 2245,
      "looked": 2246,
      "along": 2247,
      "international": 2248,
      "2011": 2249,
      "air": 2250,
      "july": 2251,
      "club": 2252,
      "went": 2253,
      "january": 2254,
      "october": 2255,
      "our": 2256,
      "august": 2257,
      "april": 2258,
      "york": 2259,
      "12": 2260,
      "few": 2261,
      "2012": 2262,
      "2008": 2263,
      "east": 2264,
      "show": 2265,
      "member": 2266,
      "college": 2267,
      "2009": 2268,
      "father": 2269,
      "public": 2270,
      "##us": 2271,
      "come": 2272,
      "men": 2273,
      "five": 2274,
      "set": 2275,
      "station": 2276,
      "church": 2277,
      "##c": 2278,
      "next": 2279,
      "former": 2280,
      "november": 2281,
      "room": 2282,
      "party": 2283,
      "located": 2284,
      "december": 2285,
      "2013": 2286,
      "age": 2287,
      "got": 2288,
      "2007": 2289,
      "##g": 2290,
      "system": 2291,
      "let": 2292,
      "love": 2293,
      "2006": 2294,
      "though": 2295,
      "every": 2296,
      "2014": 2297,
      "look": 2298,
      "song": 2299,
      "water": 2300,
      "century": 2301,
      "without": 2302,
      "body": 2303,
      "black": 2304,
      "night": 2305,
      "within": 2306,
      "great": 2307,
      "women": 2308,
      "single": 2309,
      "ve": 2310,
      "building": 2311,
      "large": 2312,
      "population": 2313,
      "river": 2314,
      "named": 2315,
      "band": 2316,
      "white": 2317,
      "started": 2318,
      "##an": 2319,
      "once": 2320,
      "15": 2321,
      "20": 2322,
      "should": 2323,
      "18": 2324,
      "2015": 2325,
      "service": 2326,
      "top": 2327,
      "built": 2328,
      "british": 2329,
      "open": 2330,
      "death": 2331,
      "king": 2332,
      "moved": 2333,
      "local": 2334,
      "times": 2335,
      "children": 2336,
      "february": 2337,
      "book": 2338,
      "why": 2339,
      "11": 2340,
      "door": 2341,
      "need": 2342,
      "president": 2343,
      "order": 2344,
      "final": 2345,
      "road": 2346,
      "wasn": 2347,
      "although": 2348,
      "due": 2349,
      "major": 2350,
      "died": 2351,
      "village": 2352,
      "third": 2353,
      "knew": 2354,
      "2016": 2355,
      "asked": 2356,
      "turned": 2357,
      "st": 2358,
      "wanted": 2359,
      "say": 2360,
      "##p": 2361,
      "together": 2362,
      "received": 2363,
      "main": 2364,
      "son": 2365,
      "served": 2366,
      "different": 2367,
      "##en": 2368,
      "behind": 2369,
      "himself": 2370,
      "felt": 2371,
      "members": 2372,
      "power": 2373,
      "football": 2374,
      "law": 2375,
      "voice": 2376,
      "play": 2377,
      "##in": 2378,
      "near": 2379,
      "park": 2380,
      "history": 2381,
      "30": 2382,
      "having": 2383,
      "2005": 2384,
      "16": 2385,
      "##man": 2386,
      "saw": 2387,
      "mother": 2388,
      "##al": 2389,
      "army": 2390,
      "point": 2391,
      "front": 2392,
      "help": 2393,
      "english": 2394,
      "street": 2395,
      "art": 2396,
      "late": 2397,
      "hands": 2398,
      "games": 2399,
      "award": 2400,
      "##ia": 2401,
      "young": 2402,
      "14": 2403,
      "put": 2404,
      "published": 2405,
      "country": 2406,
      "division": 2407,
      "across": 2408,
      "told": 2409,
      "13": 2410,
      "often": 2411,
      "ever": 2412,
      "french": 2413,
      "london": 2414,
      "center": 2415,
      "six": 2416,
      "red": 2417,
      "2017": 2418,
      "led": 2419,
      "days": 2420,
      "include": 2421,
      "light": 2422,
      "25": 2423,
      "find": 2424,
      "tell": 2425,
      "among": 2426,
      "species": 2427,
      "really": 2428,
      "according": 2429,
      "central": 2430,
      "half": 2431,
      "2004": 2432,
      "form": 2433,
      "original": 2434,
      "gave": 2435,
      "office": 2436,
      "making": 2437,
      "enough": 2438,
      "lost": 2439,
      "full": 2440,
      "opened": 2441,
      "must": 2442,
      "included": 2443,
      "live": 2444,
      "given": 2445,
      "german": 2446,
      "player": 2447,
      "run": 2448,
      "business": 2449,
      "woman": 2450,
      "community": 2451,
      "cup": 2452,
      "might": 2453,
      "million": 2454,
      "land": 2455,
      "2000": 2456,
      "court": 2457,
      "development": 2458,
      "17": 2459,
      "short": 2460,
      "round": 2461,
      "ii": 2462,
      "km": 2463,
      "seen": 2464,
      "class": 2465,
      "story": 2466,
      "always": 2467,
      "become": 2468,
      "sure": 2469,
      "research": 2470,
      "almost": 2471,
      "director": 2472,
      "council": 2473,
      "la": 2474,
      "##2": 2475,
      "career": 2476,
      "things": 2477,
      "using": 2478,
      "island": 2479,
      "##z": 2480,
      "couldn": 2481,
      "car": 2482,
      "##is": 2483,
      "24": 2484,
      "close": 2485,
      "force": 2486,
      "##1": 2487,
      "better": 2488,
      "free": 2489,
      "support": 2490,
      "control": 2491,
      "field": 2492,
      "students": 2493,
      "2003": 2494,
      "education": 2495,
      "married": 2496,
      "##b": 2497,
      "nothing": 2498,
      "worked": 2499,
      "others": 2500,
      "record": 2501,
      "big": 2502,
      "inside": 2503,
      "level": 2504,
      "anything": 2505,
      "continued": 2506,
      "give": 2507,
      "james": 2508,
      "##3": 2509,
      "military": 2510,
      "established": 2511,
      "non": 2512,
      "returned": 2513,
      "feel": 2514,
      "does": 2515,
      "title": 2516,
      "written": 2517,
      "thing": 2518,
      "feet": 2519,
      "william": 2520,
      "far": 2521,
      "co": 2522,
      "association": 2523,
      "hard": 2524,
      "already": 2525,
      "2002": 2526,
      "##ra": 2527,
      "championship": 2528,
      "human": 2529,
      "western": 2530,
      "100": 2531,
      "##na": 2532,
      "department": 2533,
      "hall": 2534,
      "role": 2535,
      "various": 2536,
      "production": 2537,
      "21": 2538,
      "19": 2539,
      "heart": 2540,
      "2001": 2541,
      "living": 2542,
      "fire": 2543,
      "version": 2544,
      "##ers": 2545,
      "##f": 2546,
      "television": 2547,
      "royal": 2548,
      "##4": 2549,
      "produced": 2550,
      "working": 2551,
      "act": 2552,
      "case": 2553,
      "society": 2554,
      "region": 2555,
      "present": 2556,
      "radio": 2557,
      "period": 2558,
      "looking": 2559,
      "least": 2560,
      "total": 2561,
      "keep": 2562,
      "england": 2563,
      "wife": 2564,
      "program": 2565,
      "per": 2566,
      "brother": 2567,
      "mind": 2568,
      "special": 2569,
      "22": 2570,
      "##le": 2571,
      "am": 2572,
      "works": 2573,
      "soon": 2574,
      "##6": 2575,
      "political": 2576,
      "george": 2577,
      "services": 2578,
      "taken": 2579,
      "created": 2580,
      "##7": 2581,
      "further": 2582,
      "able": 2583,
      "reached": 2584,
      "david": 2585,
      "union": 2586,
      "joined": 2587,
      "upon": 2588,
      "done": 2589,
      "important": 2590,
      "social": 2591,
      "information": 2592,
      "either": 2593,
      "##ic": 2594,
      "##x": 2595,
      "appeared": 2596,
      "position": 2597,
      "ground": 2598,
      "lead": 2599,
      "rock": 2600,
      "dark": 2601,
      "election": 2602,
      "23": 2603,
      "board": 2604,
      "france": 2605,
      "hair": 2606,
      "course": 2607,
      "arms": 2608,
      "site": 2609,
      "police": 2610,
      "girl": 2611,
      "instead": 2612,
      "real": 2613,
      "sound": 2614,
      "##v": 2615,
      "words": 2616,
      "moment": 2617,
      "##te": 2618,
      "someone": 2619,
      "##8": 2620,
      "summer": 2621,
      "project": 2622,
      "announced": 2623,
      "san": 2624,
      "less": 2625,
      "wrote": 2626,
      "past": 2627,
      "followed": 2628,
      "##5": 2629,
      "blue": 2630,
      "founded": 2631,
      "al": 2632,
      "finally": 2633,
      "india": 2634,
      "taking": 2635,
      "records": 2636,
      "america": 2637,
      "##ne": 2638,
      "1999": 2639,
      "design": 2640,
      "considered": 2641,
      "northern": 2642,
      "god": 2643,
      "stop": 2644,
      "battle": 2645,
      "toward": 2646,
      "european": 2647,
      "outside": 2648,
      "described": 2649,
      "track": 2650,
      "today": 2651,
      "playing": 2652,
      "language": 2653,
      "28": 2654,
      "call": 2655,
      "26": 2656,
      "heard": 2657,
      "professional": 2658,
      "low": 2659,
      "australia": 2660,
      "miles": 2661,
      "california": 2662,
      "win": 2663,
      "yet": 2664,
      "green": 2665,
      "##ie": 2666,
      "trying": 2667,
      "blood": 2668,
      "##ton": 2669,
      "southern": 2670,
      "science": 2671,
      "maybe": 2672,
      "everything": 2673,
      "match": 2674,
      "square": 2675,
      "27": 2676,
      "mouth": 2677,
      "video": 2678,
      "race": 2679,
      "recorded": 2680,
      "leave": 2681,
      "above": 2682,
      "##9": 2683,
      "daughter": 2684,
      "points": 2685,
      "space": 2686,
      "1998": 2687,
      "museum": 2688,
      "change": 2689,
      "middle": 2690,
      "common": 2691,
      "##0": 2692,
      "move": 2693,
      "tv": 2694,
      "post": 2695,
      "##ta": 2696,
      "lake": 2697,
      "seven": 2698,
      "tried": 2699,
      "elected": 2700,
      "closed": 2701,
      "ten": 2702,
      "paul": 2703,
      "minister": 2704,
      "##th": 2705,
      "months": 2706,
      "start": 2707,
      "chief": 2708,
      "return": 2709,
      "canada": 2710,
      "person": 2711,
      "sea": 2712,
      "release": 2713,
      "similar": 2714,
      "modern": 2715,
      "brought": 2716,
      "rest": 2717,
      "hit": 2718,
      "formed": 2719,
      "mr": 2720,
      "##la": 2721,
      "1997": 2722,
      "floor": 2723,
      "event": 2724,
      "doing": 2725,
      "thomas": 2726,
      "1996": 2727,
      "robert": 2728,
      "care": 2729,
      "killed": 2730,
      "training": 2731,
      "star": 2732,
      "week": 2733,
      "needed": 2734,
      "turn": 2735,
      "finished": 2736,
      "railway": 2737,
      "rather": 2738,
      "news": 2739,
      "health": 2740,
      "sent": 2741,
      "example": 2742,
      "ran": 2743,
      "term": 2744,
      "michael": 2745,
      "coming": 2746,
      "currently": 2747,
      "yes": 2748,
      "forces": 2749,
      "despite": 2750,
      "gold": 2751,
      "areas": 2752,
      "50": 2753,
      "stage": 2754,
      "fact": 2755,
      "29": 2756,
      "dead": 2757,
      "says": 2758,
      "popular": 2759,
      "2018": 2760,
      "originally": 2761,
      "germany": 2762,
      "probably": 2763,
      "developed": 2764,
      "result": 2765,
      "pulled": 2766,
      "friend": 2767,
      "stood": 2768,
      "money": 2769,
      "running": 2770,
      "mi": 2771,
      "signed": 2772,
      "word": 2773,
      "songs": 2774,
      "child": 2775,
      "eventually": 2776,
      "met": 2777,
      "tour": 2778,
      "average": 2779,
      "teams": 2780,
      "minutes": 2781,
      "festival": 2782,
      "current": 2783,
      "deep": 2784,
      "kind": 2785,
      "1995": 2786,
      "decided": 2787,
      "usually": 2788,
      "eastern": 2789,
      "seemed": 2790,
      "##ness": 2791,
      "episode": 2792,
      "bed": 2793,
      "added": 2794,
      "table": 2795,
      "indian": 2796,
      "private": 2797,
      "charles": 2798,
      "route": 2799,
      "available": 2800,
      "idea": 2801,
      "throughout": 2802,
      "centre": 2803,
      "addition": 2804,
      "appointed": 2805,
      "style": 2806,
      "1994": 2807,
      "books": 2808,
      "eight": 2809,
      "construction": 2810,
      "press": 2811,
      "mean": 2812,
      "wall": 2813,
      "friends": 2814,
      "remained": 2815,
      "schools": 2816,
      "study": 2817,
      "##ch": 2818,
      "##um": 2819,
      "institute": 2820,
      "oh": 2821,
      "chinese": 2822,
      "sometimes": 2823,
      "events": 2824,
      "possible": 2825,
      "1992": 2826,
      "australian": 2827,
      "type": 2828,
      "brown": 2829,
      "forward": 2830,
      "talk": 2831,
      "process": 2832,
      "food": 2833,
      "debut": 2834,
      "seat": 2835,
      "performance": 2836,
      "committee": 2837,
      "features": 2838,
      "character": 2839,
      "arts": 2840,
      "herself": 2841,
      "else": 2842,
      "lot": 2843,
      "strong": 2844,
      "russian": 2845,
      "range": 2846,
      "hours": 2847,
      "peter": 2848,
      "arm": 2849,
      "##da": 2850,
      "morning": 2851,
      "dr": 2852,
      "sold": 2853,
      "##ry": 2854,
      "quickly": 2855,
      "directed": 2856,
      "1993": 2857,
      "guitar": 2858,
      "china": 2859,
      "##w": 2860,
      "31": 2861,
      "list": 2862,
      "##ma": 2863,
      "performed": 2864,
      "media": 2865,
      "uk": 2866,
      "players": 2867,
      "smile": 2868,
      "##rs": 2869,
      "myself": 2870,
      "40": 2871,
      "placed": 2872,
      "coach": 2873,
      "province": 2874,
      "towards": 2875,
      "wouldn": 2876,
      "leading": 2877,
      "whole": 2878,
      "boy": 2879,
      "official": 2880,
      "designed": 2881,
      "grand": 2882,
      "census": 2883,
      "##el": 2884,
      "europe": 2885,
      "attack": 2886,
      "japanese": 2887,
      "henry": 2888,
      "1991": 2889,
      "##re": 2890,
      "##os": 2891,
      "cross": 2892,
      "getting": 2893,
      "alone": 2894,
      "action": 2895,
      "lower": 2896,
      "network": 2897,
      "wide": 2898,
      "washington": 2899,
      "japan": 2900,
      "1990": 2901,
      "hospital": 2902,
      "believe": 2903,
      "changed": 2904,
      "sister": 2905,
      "##ar": 2906,
      "hold": 2907,
      "gone": 2908,
      "sir": 2909,
      "hadn": 2910,
      "ship": 2911,
      "##ka": 2912,
      "studies": 2913,
      "academy": 2914,
      "shot": 2915,
      "rights": 2916,
      "below": 2917,
      "base": 2918,
      "bad": 2919,
      "involved": 2920,
      "kept": 2921,
      "largest": 2922,
      "##ist": 2923,
      "bank": 2924,
      "future": 2925,
      "especially": 2926,
      "beginning": 2927,
      "mark": 2928,
      "movement": 2929,
      "section": 2930,
      "female": 2931,
      "magazine": 2932,
      "plan": 2933,
      "professor": 2934,
      "lord": 2935,
      "longer": 2936,
      "##ian": 2937,
      "sat": 2938,
      "walked": 2939,
      "hill": 2940,
      "actually": 2941,
      "civil": 2942,
      "energy": 2943,
      "model": 2944,
      "families": 2945,
      "size": 2946,
      "thus": 2947,
      "aircraft": 2948,
      "completed": 2949,
      "includes": 2950,
      "data": 2951,
      "captain": 2952,
      "##or": 2953,
      "fight": 2954,
      "vocals": 2955,
      "featured": 2956,
      "richard": 2957,
      "bridge": 2958,
      "fourth": 2959,
      "1989": 2960,
      "officer": 2961,
      "stone": 2962,
      "hear": 2963,
      "##ism": 2964,
      "means": 2965,
      "medical": 2966,
      "groups": 2967,
      "management": 2968,
      "self": 2969,
      "lips": 2970,
      "competition": 2971,
      "entire": 2972,
      "lived": 2973,
      "technology": 2974,
      "leaving": 2975,
      "federal": 2976,
      "tournament": 2977,
      "bit": 2978,
      "passed": 2979,
      "hot": 2980,
      "independent": 2981,
      "awards": 2982,
      "kingdom": 2983,
      "mary": 2984,
      "spent": 2985,
      "fine": 2986,
      "doesn": 2987,
      "reported": 2988,
      "##ling": 2989,
      "jack": 2990,
      "fall": 2991,
      "raised": 2992,
      "itself": 2993,
      "stay": 2994,
      "true": 2995,
      "studio": 2996,
      "1988": 2997,
      "sports": 2998,
      "replaced": 2999,
      "paris": 3000,
      "systems": 3001,
      "saint": 3002,
      "leader": 3003,
      "theatre": 3004,
      "whose": 3005,
      "market": 3006,
      "capital": 3007,
      "parents": 3008,
      "spanish": 3009,
      "canadian": 3010,
      "earth": 3011,
      "##ity": 3012,
      "cut": 3013,
      "degree": 3014,
      "writing": 3015,
      "bay": 3016,
      "christian": 3017,
      "awarded": 3018,
      "natural": 3019,
      "higher": 3020,
      "bill": 3021,
      "##as": 3022,
      "coast": 3023,
      "provided": 3024,
      "previous": 3025,
      "senior": 3026,
      "ft": 3027,
      "valley": 3028,
      "organization": 3029,
      "stopped": 3030,
      "onto": 3031,
      "countries": 3032,
      "parts": 3033,
      "conference": 3034,
      "queen": 3035,
      "security": 3036,
      "interest": 3037,
      "saying": 3038,
      "allowed": 3039,
      "master": 3040,
      "earlier": 3041,
      "phone": 3042,
      "matter": 3043,
      "smith": 3044,
      "winning": 3045,
      "try": 3046,
      "happened": 3047,
      "moving": 3048,
      "campaign": 3049,
      "los": 3050,
      "##ley": 3051,
      "breath": 3052,
      "nearly": 3053,
      "mid": 3054,
      "1987": 3055,
      "certain": 3056,
      "girls": 3057,
      "date": 3058,
      "italian": 3059,
      "african": 3060,
      "standing": 3061,
      "fell": 3062,
      "artist": 3063,
      "##ted": 3064,
      "shows": 3065,
      "deal": 3066,
      "mine": 3067,
      "industry": 3068,
      "1986": 3069,
      "##ng": 3070,
      "everyone": 3071,
      "republic": 3072,
      "provide": 3073,
      "collection": 3074,
      "library": 3075,
      "student": 3076,
      "##ville": 3077,
      "primary": 3078,
      "owned": 3079,
      "older": 3080,
      "via": 3081,
      "heavy": 3082,
      "1st": 3083,
      "makes": 3084,
      "##able": 3085,
      "attention": 3086,
      "anyone": 3087,
      "africa": 3088,
      "##ri": 3089,
      "stated": 3090,
      "length": 3091,
      "ended": 3092,
      "fingers": 3093,
      "command": 3094,
      "staff": 3095,
      "skin": 3096,
      "foreign": 3097,
      "opening": 3098,
      "governor": 3099,
      "okay": 3100,
      "medal": 3101,
      "kill": 3102,
      "sun": 3103,
      "cover": 3104,
      "job": 3105,
      "1985": 3106,
      "introduced": 3107,
      "chest": 3108,
      "hell": 3109,
      "feeling": 3110,
      "##ies": 3111,
      "success": 3112,
      "meet": 3113,
      "reason": 3114,
      "standard": 3115,
      "meeting": 3116,
      "novel": 3117,
      "1984": 3118,
      "trade": 3119,
      "source": 3120,
      "buildings": 3121,
      "##land": 3122,
      "rose": 3123,
      "guy": 3124,
      "goal": 3125,
      "##ur": 3126,
      "chapter": 3127,
      "native": 3128,
      "husband": 3129,
      "previously": 3130,
      "unit": 3131,
      "limited": 3132,
      "entered": 3133,
      "weeks": 3134,
      "producer": 3135,
      "operations": 3136,
      "mountain": 3137,
      "takes": 3138,
      "covered": 3139,
      "forced": 3140,
      "related": 3141,
      "roman": 3142,
      "complete": 3143,
      "successful": 3144,
      "key": 3145,
      "texas": 3146,
      "cold": 3147,
      "##ya": 3148,
      "channel": 3149,
      "1980": 3150,
      "traditional": 3151,
      "films": 3152,
      "dance": 3153,
      "clear": 3154,
      "approximately": 3155,
      "500": 3156,
      "nine": 3157,
      "van": 3158,
      "prince": 3159,
      "question": 3160,
      "active": 3161,
      "tracks": 3162,
      "ireland": 3163,
      "regional": 3164,
      "silver": 3165,
      "author": 3166,
      "personal": 3167,
      "sense": 3168,
      "operation": 3169,
      "##ine": 3170,
      "economic": 3171,
      "1983": 3172,
      "holding": 3173,
      "twenty": 3174,
      "isbn": 3175,
      "additional": 3176,
      "speed": 3177,
      "hour": 3178,
      "edition": 3179,
      "regular": 3180,
      "historic": 3181,
      "places": 3182,
      "whom": 3183,
      "shook": 3184,
      "movie": 3185,
      "km²": 3186,
      "secretary": 3187,
      "prior": 3188,
      "report": 3189,
      "chicago": 3190,
      "read": 3191,
      "foundation": 3192,
      "view": 3193,
      "engine": 3194,
      "scored": 3195,
      "1982": 3196,
      "units": 3197,
      "ask": 3198,
      "airport": 3199,
      "property": 3200,
      "ready": 3201,
      "immediately": 3202,
      "lady": 3203,
      "month": 3204,
      "listed": 3205,
      "contract": 3206,
      "##de": 3207,
      "manager": 3208,
      "themselves": 3209,
      "lines": 3210,
      "##ki": 3211,
      "navy": 3212,
      "writer": 3213,
      "meant": 3214,
      "##ts": 3215,
      "runs": 3216,
      "##ro": 3217,
      "practice": 3218,
      "championships": 3219,
      "singer": 3220,
      "glass": 3221,
      "commission": 3222,
      "required": 3223,
      "forest": 3224,
      "starting": 3225,
      "culture": 3226,
      "generally": 3227,
      "giving": 3228,
      "access": 3229,
      "attended": 3230,
      "test": 3231,
      "couple": 3232,
      "stand": 3233,
      "catholic": 3234,
      "martin": 3235,
      "caught": 3236,
      "executive": 3237,
      "##less": 3238,
      "eye": 3239,
      "##ey": 3240,
      "thinking": 3241,
      "chair": 3242,
      "quite": 3243,
      "shoulder": 3244,
      "1979": 3245,
      "hope": 3246,
      "decision": 3247,
      "plays": 3248,
      "defeated": 3249,
      "municipality": 3250,
      "whether": 3251,
      "structure": 3252,
      "offered": 3253,
      "slowly": 3254,
      "pain": 3255,
      "ice": 3256,
      "direction": 3257,
      "##ion": 3258,
      "paper": 3259,
      "mission": 3260,
      "1981": 3261,
      "mostly": 3262,
      "200": 3263,
      "noted": 3264,
      "individual": 3265,
      "managed": 3266,
      "nature": 3267,
      "lives": 3268,
      "plant": 3269,
      "##ha": 3270,
      "helped": 3271,
      "except": 3272,
      "studied": 3273,
      "computer": 3274,
      "figure": 3275,
      "relationship": 3276,
      "issue": 3277,
      "significant": 3278,
      "loss": 3279,
      "die": 3280,
      "smiled": 3281,
      "gun": 3282,
      "ago": 3283,
      "highest": 3284,
      "1972": 3285,
      "##am": 3286,
      "male": 3287,
      "bring": 3288,
      "goals": 3289,
      "mexico": 3290,
      "problem": 3291,
      "distance": 3292,
      "commercial": 3293,
      "completely": 3294,
      "location": 3295,
      "annual": 3296,
      "famous": 3297,
      "drive": 3298,
      "1976": 3299,
      "neck": 3300,
      "1978": 3301,
      "surface": 3302,
      "caused": 3303,
      "italy": 3304,
      "understand": 3305,
      "greek": 3306,
      "highway": 3307,
      "wrong": 3308,
      "hotel": 3309,
      "comes": 3310,
      "appearance": 3311,
      "joseph": 3312,
      "double": 3313,
      "issues": 3314,
      "musical": 3315,
      "companies": 3316,
      "castle": 3317,
      "income": 3318,
      "review": 3319,
      "assembly": 3320,
      "bass": 3321,
      "initially": 3322,
      "parliament": 3323,
      "artists": 3324,
      "experience": 3325,
      "1974": 3326,
      "particular": 3327,
      "walk": 3328,
      "foot": 3329,
      "engineering": 3330,
      "talking": 3331,
      "window": 3332,
      "dropped": 3333,
      "##ter": 3334,
      "miss": 3335,
      "baby": 3336,
      "boys": 3337,
      "break": 3338,
      "1975": 3339,
      "stars": 3340,
      "edge": 3341,
      "remember": 3342,
      "policy": 3343,
      "carried": 3344,
      "train": 3345,
      "stadium": 3346,
      "bar": 3347,
      "sex": 3348,
      "angeles": 3349,
      "evidence": 3350,
      "##ge": 3351,
      "becoming": 3352,
      "assistant": 3353,
      "soviet": 3354,
      "1977": 3355,
      "upper": 3356,
      "step": 3357,
      "wing": 3358,
      "1970": 3359,
      "youth": 3360,
      "financial": 3361,
      "reach": 3362,
      "##ll": 3363,
      "actor": 3364,
      "numerous": 3365,
      "##se": 3366,
      "##st": 3367,
      "nodded": 3368,
      "arrived": 3369,
      "##ation": 3370,
      "minute": 3371,
      "##nt": 3372,
      "believed": 3373,
      "sorry": 3374,
      "complex": 3375,
      "beautiful": 3376,
      "victory": 3377,
      "associated": 3378,
      "temple": 3379,
      "1968": 3380,
      "1973": 3381,
      "chance": 3382,
      "perhaps": 3383,
      "metal": 3384,
      "##son": 3385,
      "1945": 3386,
      "bishop": 3387,
      "##et": 3388,
      "lee": 3389,
      "launched": 3390,
      "particularly": 3391,
      "tree": 3392,
      "le": 3393,
      "retired": 3394,
      "subject": 3395,
      "prize": 3396,
      "contains": 3397,
      "yeah": 3398,
      "theory": 3399,
      "empire": 3400,
      "##ce": 3401,
      "suddenly": 3402,
      "waiting": 3403,
      "trust": 3404,
      "recording": 3405,
      "##to": 3406,
      "happy": 3407,
      "terms": 3408,
      "camp": 3409,
      "champion": 3410,
      "1971": 3411,
      "religious": 3412,
      "pass": 3413,
      "zealand": 3414,
      "names": 3415,
      "2nd": 3416,
      "port": 3417,
      "ancient": 3418,
      "tom": 3419,
      "corner": 3420,
      "represented": 3421,
      "watch": 3422,
      "legal": 3423,
      "anti": 3424,
      "justice": 3425,
      "cause": 3426,
      "watched": 3427,
      "brothers": 3428,
      "45": 3429,
      "material": 3430,
      "changes": 3431,
      "simply": 3432,
      "response": 3433,
      "louis": 3434,
      "fast": 3435,
      "##ting": 3436,
      "answer": 3437,
      "60": 3438,
      "historical": 3439,
      "1969": 3440,
      "stories": 3441,
      "straight": 3442,
      "create": 3443,
      "feature": 3444,
      "increased": 3445,
      "rate": 3446,
      "administration": 3447,
      "virginia": 3448,
      "el": 3449,
      "activities": 3450,
      "cultural": 3451,
      "overall": 3452,
      "winner": 3453,
      "programs": 3454,
      "basketball": 3455,
      "legs": 3456,
      "guard": 3457,
      "beyond": 3458,
      "cast": 3459,
      "doctor": 3460,
      "mm": 3461,
      "flight": 3462,
      "results": 3463,
      "remains": 3464,
      "cost": 3465,
      "effect": 3466,
      "winter": 3467,
      "##ble": 3468,
      "larger": 3469,
      "islands": 3470,
      "problems": 3471,
      "chairman": 3472,
      "grew": 3473,
      "commander": 3474,
      "isn": 3475,
      "1967": 3476,
      "pay": 3477,
      "failed": 3478,
      "selected": 3479,
      "hurt": 3480,
      "fort": 3481,
      "box": 3482,
      "regiment": 3483,
      "majority": 3484,
      "journal": 3485,
      "35": 3486,
      "edward": 3487,
      "plans": 3488,
      "##ke": 3489,
      "##ni": 3490,
      "shown": 3491,
      "pretty": 3492,
      "irish": 3493,
      "characters": 3494,
      "directly": 3495,
      "scene": 3496,
      "likely": 3497,
      "operated": 3498,
      "allow": 3499,
      "spring": 3500,
      "##j": 3501,
      "junior": 3502,
      "matches": 3503,
      "looks": 3504,
      "mike": 3505,
      "houses": 3506,
      "fellow": 3507,
      "##tion": 3508,
      "beach": 3509,
      "marriage": 3510,
      "##ham": 3511,
      "##ive": 3512,
      "rules": 3513,
      "oil": 3514,
      "65": 3515,
      "florida": 3516,
      "expected": 3517,
      "nearby": 3518,
      "congress": 3519,
      "sam": 3520,
      "peace": 3521,
      "recent": 3522,
      "iii": 3523,
      "wait": 3524,
      "subsequently": 3525,
      "cell": 3526,
      "##do": 3527,
      "variety": 3528,
      "serving": 3529,
      "agreed": 3530,
      "please": 3531,
      "poor": 3532,
      "joe": 3533,
      "pacific": 3534,
      "attempt": 3535,
      "wood": 3536,
      "democratic": 3537,
      "piece": 3538,
      "prime": 3539,
      "##ca": 3540,
      "rural": 3541,
      "mile": 3542,
      "touch": 3543,
      "appears": 3544,
      "township": 3545,
      "1964": 3546,
      "1966": 3547,
      "soldiers": 3548,
      "##men": 3549,
      "##ized": 3550,
      "1965": 3551,
      "pennsylvania": 3552,
      "closer": 3553,
      "fighting": 3554,
      "claimed": 3555,
      "score": 3556,
      "jones": 3557,
      "physical": 3558,
      "editor": 3559,
      "##ous": 3560,
      "filled": 3561,
      "genus": 3562,
      "specific": 3563,
      "sitting": 3564,
      "super": 3565,
      "mom": 3566,
      "##va": 3567,
      "therefore": 3568,
      "supported": 3569,
      "status": 3570,
      "fear": 3571,
      "cases": 3572,
      "store": 3573,
      "meaning": 3574,
      "wales": 3575,
      "minor": 3576,
      "spain": 3577,
      "tower": 3578,
      "focus": 3579,
      "vice": 3580,
      "frank": 3581,
      "follow": 3582,
      "parish": 3583,
      "separate": 3584,
      "golden": 3585,
      "horse": 3586,
      "fifth": 3587,
      "remaining": 3588,
      "branch": 3589,
      "32": 3590,
      "presented": 3591,
      "stared": 3592,
      "##id": 3593,
      "uses": 3594,
      "secret": 3595,
      "forms": 3596,
      "##co": 3597,
      "baseball": 3598,
      "exactly": 3599,
      "##ck": 3600,
      "choice": 3601,
      "note": 3602,
      "discovered": 3603,
      "travel": 3604,
      "composed": 3605,
      "truth": 3606,
      "russia": 3607,
      "ball": 3608,
      "color": 3609,
      "kiss": 3610,
      "dad": 3611,
      "wind": 3612,
      "continue": 3613,
      "ring": 3614,
      "referred": 3615,
      "numbers": 3616,
      "digital": 3617,
      "greater": 3618,
      "##ns": 3619,
      "metres": 3620,
      "slightly": 3621,
      "direct": 3622,
      "increase": 3623,
      "1960": 3624,
      "responsible": 3625,
      "crew": 3626,
      "rule": 3627,
      "trees": 3628,
      "troops": 3629,
      "##no": 3630,
      "broke": 3631,
      "goes": 3632,
      "individuals": 3633,
      "hundred": 3634,
      "weight": 3635,
      "creek": 3636,
      "sleep": 3637,
      "memory": 3638,
      "defense": 3639,
      "provides": 3640,
      "ordered": 3641,
      "code": 3642,
      "value": 3643,
      "jewish": 3644,
      "windows": 3645,
      "1944": 3646,
      "safe": 3647,
      "judge": 3648,
      "whatever": 3649,
      "corps": 3650,
      "realized": 3651,
      "growing": 3652,
      "pre": 3653,
      "##ga": 3654,
      "cities": 3655,
      "alexander": 3656,
      "gaze": 3657,
      "lies": 3658,
      "spread": 3659,
      "scott": 3660,
      "letter": 3661,
      "showed": 3662,
      "situation": 3663,
      "mayor": 3664,
      "transport": 3665,
      "watching": 3666,
      "workers": 3667,
      "extended": 3668,
      "##li": 3669,
      "expression": 3670,
      "normal": 3671,
      "##ment": 3672,
      "chart": 3673,
      "multiple": 3674,
      "border": 3675,
      "##ba": 3676,
      "host": 3677,
      "##ner": 3678,
      "daily": 3679,
      "mrs": 3680,
      "walls": 3681,
      "piano": 3682,
      "##ko": 3683,
      "heat": 3684,
      "cannot": 3685,
      "##ate": 3686,
      "earned": 3687,
      "products": 3688,
      "drama": 3689,
      "era": 3690,
      "authority": 3691,
      "seasons": 3692,
      "join": 3693,
      "grade": 3694,
      "##io": 3695,
      "sign": 3696,
      "difficult": 3697,
      "machine": 3698,
      "1963": 3699,
      "territory": 3700,
      "mainly": 3701,
      "##wood": 3702,
      "stations": 3703,
      "squadron": 3704,
      "1962": 3705,
      "stepped": 3706,
      "iron": 3707,
      "19th": 3708,
      "##led": 3709,
      "serve": 3710,
      "appear": 3711,
      "sky": 3712,
      "speak": 3713,
      "broken": 3714,
      "charge": 3715,
      "knowledge": 3716,
      "kilometres": 3717,
      "removed": 3718,
      "ships": 3719,
      "article": 3720,
      "campus": 3721,
      "simple": 3722,
      "##ty": 3723,
      "pushed": 3724,
      "britain": 3725,
      "##ve": 3726,
      "leaves": 3727,
      "recently": 3728,
      "cd": 3729,
      "soft": 3730,
      "boston": 3731,
      "latter": 3732,
      "easy": 3733,
      "acquired": 3734,
      "poland": 3735,
      "##sa": 3736,
      "quality": 3737,
      "officers": 3738,
      "presence": 3739,
      "planned": 3740,
      "nations": 3741,
      "mass": 3742,
      "broadcast": 3743,
      "jean": 3744,
      "share": 3745,
      "image": 3746,
      "influence": 3747,
      "wild": 3748,
      "offer": 3749,
      "emperor": 3750,
      "electric": 3751,
      "reading": 3752,
      "headed": 3753,
      "ability": 3754,
      "promoted": 3755,
      "yellow": 3756,
      "ministry": 3757,
      "1942": 3758,
      "throat": 3759,
      "smaller": 3760,
      "politician": 3761,
      "##by": 3762,
      "latin": 3763,
      "spoke": 3764,
      "cars": 3765,
      "williams": 3766,
      "males": 3767,
      "lack": 3768,
      "pop": 3769,
      "80": 3770,
      "##ier": 3771,
      "acting": 3772,
      "seeing": 3773,
      "consists": 3774,
      "##ti": 3775,
      "estate": 3776,
      "1961": 3777,
      "pressure": 3778,
      "johnson": 3779,
      "newspaper": 3780,
      "jr": 3781,
      "chris": 3782,
      "olympics": 3783,
      "online": 3784,
      "conditions": 3785,
      "beat": 3786,
      "elements": 3787,
      "walking": 3788,
      "vote": 3789,
      "##field": 3790,
      "needs": 3791,
      "carolina": 3792,
      "text": 3793,
      "featuring": 3794,
      "global": 3795,
      "block": 3796,
      "shirt": 3797,
      "levels": 3798,
      "francisco": 3799,
      "purpose": 3800,
      "females": 3801,
      "et": 3802,
      "dutch": 3803,
      "duke": 3804,
      "ahead": 3805,
      "gas": 3806,
      "twice": 3807,
      "safety": 3808,
      "serious": 3809,
      "turning": 3810,
      "highly": 3811,
      "lieutenant": 3812,
      "firm": 3813,
      "maria": 3814,
      "amount": 3815,
      "mixed": 3816,
      "daniel": 3817,
      "proposed": 3818,
      "perfect": 3819,
      "agreement": 3820,
      "affairs": 3821,
      "3rd": 3822,
      "seconds": 3823,
      "contemporary": 3824,
      "paid": 3825,
      "1943": 3826,
      "prison": 3827,
      "save": 3828,
      "kitchen": 3829,
      "label": 3830,
      "administrative": 3831,
      "intended": 3832,
      "constructed": 3833,
      "academic": 3834,
      "nice": 3835,
      "teacher": 3836,
      "races": 3837,
      "1956": 3838,
      "formerly": 3839,
      "corporation": 3840,
      "ben": 3841,
      "nation": 3842,
      "issued": 3843,
      "shut": 3844,
      "1958": 3845,
      "drums": 3846,
      "housing": 3847,
      "victoria": 3848,
      "seems": 3849,
      "opera": 3850,
      "1959": 3851,
      "graduated": 3852,
      "function": 3853,
      "von": 3854,
      "mentioned": 3855,
      "picked": 3856,
      "build": 3857,
      "recognized": 3858,
      "shortly": 3859,
      "protection": 3860,
      "picture": 3861,
      "notable": 3862,
      "exchange": 3863,
      "elections": 3864,
      "1980s": 3865,
      "loved": 3866,
      "percent": 3867,
      "racing": 3868,
      "fish": 3869,
      "elizabeth": 3870,
      "garden": 3871,
      "volume": 3872,
      "hockey": 3873,
      "1941": 3874,
      "beside": 3875,
      "settled": 3876,
      "##ford": 3877,
      "1940": 3878,
      "competed": 3879,
      "replied": 3880,
      "drew": 3881,
      "1948": 3882,
      "actress": 3883,
      "marine": 3884,
      "scotland": 3885,
      "steel": 3886,
      "glanced": 3887,
      "farm": 3888,
      "steve": 3889,
      "1957": 3890,
      "risk": 3891,
      "tonight": 3892,
      "positive": 3893,
      "magic": 3894,
      "singles": 3895,
      "effects": 3896,
      "gray": 3897,
      "screen": 3898,
      "dog": 3899,
      "##ja": 3900,
      "residents": 3901,
      "bus": 3902,
      "sides": 3903,
      "none": 3904,
      "secondary": 3905,
      "literature": 3906,
      "polish": 3907,
      "destroyed": 3908,
      "flying": 3909,
      "founder": 3910,
      "households": 3911,
      "1939": 3912,
      "lay": 3913,
      "reserve": 3914,
      "usa": 3915,
      "gallery": 3916,
      "##ler": 3917,
      "1946": 3918,
      "industrial": 3919,
      "younger": 3920,
      "approach": 3921,
      "appearances": 3922,
      "urban": 3923,
      "ones": 3924,
      "1950": 3925,
      "finish": 3926,
      "avenue": 3927,
      "powerful": 3928,
      "fully": 3929,
      "growth": 3930,
      "page": 3931,
      "honor": 3932,
      "jersey": 3933,
      "projects": 3934,
      "advanced": 3935,
      "revealed": 3936,
      "basic": 3937,
      "90": 3938,
      "infantry": 3939,
      "pair": 3940,
      "equipment": 3941,
      "visit": 3942,
      "33": 3943,
      "evening": 3944,
      "search": 3945,
      "grant": 3946,
      "effort": 3947,
      "solo": 3948,
      "treatment": 3949,
      "buried": 3950,
      "republican": 3951,
      "primarily": 3952,
      "bottom": 3953,
      "owner": 3954,
      "1970s": 3955,
      "israel": 3956,
      "gives": 3957,
      "jim": 3958,
      "dream": 3959,
      "bob": 3960,
      "remain": 3961,
      "spot": 3962,
      "70": 3963,
      "notes": 3964,
      "produce": 3965,
      "champions": 3966,
      "contact": 3967,
      "ed": 3968,
      "soul": 3969,
      "accepted": 3970,
      "ways": 3971,
      "del": 3972,
      "##ally": 3973,
      "losing": 3974,
      "split": 3975,
      "price": 3976,
      "capacity": 3977,
      "basis": 3978,
      "trial": 3979,
      "questions": 3980,
      "##ina": 3981,
      "1955": 3982,
      "20th": 3983,
      "guess": 3984,
      "officially": 3985,
      "memorial": 3986,
      "naval": 3987,
      "initial": 3988,
      "##ization": 3989,
      "whispered": 3990,
      "median": 3991,
      "engineer": 3992,
      "##ful": 3993,
      "sydney": 3994,
      "##go": 3995,
      "columbia": 3996,
      "strength": 3997,
      "300": 3998,
      "1952": 3999,
      "tears": 4000,
      "senate": 4001,
      "00": 4002,
      "card": 4003,
      "asian": 4004,
      "agent": 4005,
      "1947": 4006,
      "software": 4007,
      "44": 4008,
      "draw": 4009,
      "warm": 4010,
      "supposed": 4011,
      "com": 4012,
      "pro": 4013,
      "##il": 4014,
      "transferred": 4015,
      "leaned": 4016,
      "##at": 4017,
      "candidate": 4018,
      "escape": 4019,
      "mountains": 4020,
      "asia": 4021,
      "potential": 4022,
      "activity": 4023,
      "entertainment": 4024,
      "seem": 4025,
      "traffic": 4026,
      "jackson": 4027,
      "murder": 4028,
      "36": 4029,
      "slow": 4030,
      "product": 4031,
      "orchestra": 4032,
      "haven": 4033,
      "agency": 4034,
      "bbc": 4035,
      "taught": 4036,
      "website": 4037,
      "comedy": 4038,
      "unable": 4039,
      "storm": 4040,
      "planning": 4041,
      "albums": 4042,
      "rugby": 4043,
      "environment": 4044,
      "scientific": 4045,
      "grabbed": 4046,
      "protect": 4047,
      "##hi": 4048,
      "boat": 4049,
      "typically": 4050,
      "1954": 4051,
      "1953": 4052,
      "damage": 4053,
      "principal": 4054,
      "divided": 4055,
      "dedicated": 4056,
      "mount": 4057,
      "ohio": 4058,
      "##berg": 4059,
      "pick": 4060,
      "fought": 4061,
      "driver": 4062,
      "##der": 4063,
      "empty": 4064,
      "shoulders": 4065,
      "sort": 4066,
      "thank": 4067,
      "berlin": 4068,
      "prominent": 4069,
      "account": 4070,
      "freedom": 4071,
      "necessary": 4072,
      "efforts": 4073,
      "alex": 4074,
      "headquarters": 4075,
      "follows": 4076,
      "alongside": 4077,
      "des": 4078,
      "simon": 4079,
      "andrew": 4080,
      "suggested": 4081,
      "operating": 4082,
      "learning": 4083,
      "steps": 4084,
      "1949": 4085,
      "sweet": 4086,
      "technical": 4087,
      "begin": 4088,
      "easily": 4089,
      "34": 4090,
      "teeth": 4091,
      "speaking": 4092,
      "settlement": 4093,
      "scale": 4094,
      "##sh": 4095,
      "renamed": 4096,
      "ray": 4097,
      "max": 4098,
      "enemy": 4099,
      "semi": 4100,
      "joint": 4101,
      "compared": 4102,
      "##rd": 4103,
      "scottish": 4104,
      "leadership": 4105,
      "analysis": 4106,
      "offers": 4107,
      "georgia": 4108,
      "pieces": 4109,
      "captured": 4110,
      "animal": 4111,
      "deputy": 4112,
      "guest": 4113,
      "organized": 4114,
      "##lin": 4115,
      "tony": 4116,
      "combined": 4117,
      "method": 4118,
      "challenge": 4119,
      "1960s": 4120,
      "huge": 4121,
      "wants": 4122,
      "battalion": 4123,
      "sons": 4124,
      "rise": 4125,
      "crime": 4126,
      "types": 4127,
      "facilities": 4128,
      "telling": 4129,
      "path": 4130,
      "1951": 4131,
      "platform": 4132,
      "sit": 4133,
      "1990s": 4134,
      "##lo": 4135,
      "tells": 4136,
      "assigned": 4137,
      "rich": 4138,
      "pull": 4139,
      "##ot": 4140,
      "commonly": 4141,
      "alive": 4142,
      "##za": 4143,
      "letters": 4144,
      "concept": 4145,
      "conducted": 4146,
      "wearing": 4147,
      "happen": 4148,
      "bought": 4149,
      "becomes": 4150,
      "holy": 4151,
      "gets": 4152,
      "ocean": 4153,
      "defeat": 4154,
      "languages": 4155,
      "purchased": 4156,
      "coffee": 4157,
      "occurred": 4158,
      "titled": 4159,
      "##q": 4160,
      "declared": 4161,
      "applied": 4162,
      "sciences": 4163,
      "concert": 4164,
      "sounds": 4165,
      "jazz": 4166,
      "brain": 4167,
      "##me": 4168,
      "painting": 4169,
      "fleet": 4170,
      "tax": 4171,
      "nick": 4172,
      "##ius": 4173,
      "michigan": 4174,
      "count": 4175,
      "animals": 4176,
      "leaders": 4177,
      "episodes": 4178,
      "##line": 4179,
      "content": 4180,
      "##den": 4181,
      "birth": 4182,
      "##it": 4183,
      "clubs": 4184,
      "64": 4185,
      "palace": 4186,
      "critical": 4187,
      "refused": 4188,
      "fair": 4189,
      "leg": 4190,
      "laughed": 4191,
      "returning": 4192,
      "surrounding": 4193,
      "participated": 4194,
      "formation": 4195,
      "lifted": 4196,
      "pointed": 4197,
      "connected": 4198,
      "rome": 4199,
      "medicine": 4200,
      "laid": 4201,
      "taylor": 4202,
      "santa": 4203,
      "powers": 4204,
      "adam": 4205,
      "tall": 4206,
      "shared": 4207,
      "focused": 4208,
      "knowing": 4209,
      "yards": 4210,
      "entrance": 4211,
      "falls": 4212,
      "##wa": 4213,
      "calling": 4214,
      "##ad": 4215,
      "sources": 4216,
      "chosen": 4217,
      "beneath": 4218,
      "resources": 4219,
      "yard": 4220,
      "##ite": 4221,
      "nominated": 4222,
      "silence": 4223,
      "zone": 4224,
      "defined": 4225,
      "##que": 4226,
      "gained": 4227,
      "thirty": 4228,
      "38": 4229,
      "bodies": 4230,
      "moon": 4231,
      "##ard": 4232,
      "adopted": 4233,
      "christmas": 4234,
      "widely": 4235,
      "register": 4236,
      "apart": 4237,
      "iran": 4238,
      "premier": 4239,
      "serves": 4240,
      "du": 4241,
      "unknown": 4242,
      "parties": 4243,
      "##les": 4244,
      "generation": 4245,
      "##ff": 4246,
      "continues": 4247,
      "quick": 4248,
      "fields": 4249,
      "brigade": 4250,
      "quiet": 4251,
      "teaching": 4252,
      "clothes": 4253,
      "impact": 4254,
      "weapons": 4255,
      "partner": 4256,
      "flat": 4257,
      "theater": 4258,
      "supreme": 4259,
      "1938": 4260,
      "37": 4261,
      "relations": 4262,
      "##tor": 4263,
      "plants": 4264,
      "suffered": 4265,
      "1936": 4266,
      "wilson": 4267,
      "kids": 4268,
      "begins": 4269,
      "##age": 4270,
      "1918": 4271,
      "seats": 4272,
      "armed": 4273,
      "internet": 4274,
      "models": 4275,
      "worth": 4276,
      "laws": 4277,
      "400": 4278,
      "communities": 4279,
      "classes": 4280,
      "background": 4281,
      "knows": 4282,
      "thanks": 4283,
      "quarter": 4284,
      "reaching": 4285,
      "humans": 4286,
      "carry": 4287,
      "killing": 4288,
      "format": 4289,
      "kong": 4290,
      "hong": 4291,
      "setting": 4292,
      "75": 4293,
      "architecture": 4294,
      "disease": 4295,
      "railroad": 4296,
      "inc": 4297,
      "possibly": 4298,
      "wish": 4299,
      "arthur": 4300,
      "thoughts": 4301,
      "harry": 4302,
      "doors": 4303,
      "density": 4304,
      "##di": 4305,
      "crowd": 4306,
      "illinois": 4307,
      "stomach": 4308,
      "tone": 4309,
      "unique": 4310,
      "reports": 4311,
      "anyway": 4312,
      "##ir": 4313,
      "liberal": 4314,
      "der": 4315,
      "vehicle": 4316,
      "thick": 4317,
      "dry": 4318,
      "drug": 4319,
      "faced": 4320,
      "largely": 4321,
      "facility": 4322,
      "theme": 4323,
      "holds": 4324,
      "creation": 4325,
      "strange": 4326,
      "colonel": 4327,
      "##mi": 4328,
      "revolution": 4329,
      "bell": 4330,
      "politics": 4331,
      "turns": 4332,
      "silent": 4333,
      "rail": 4334,
      "relief": 4335,
      "independence": 4336,
      "combat": 4337,
      "shape": 4338,
      "write": 4339,
      "determined": 4340,
      "sales": 4341,
      "learned": 4342,
      "4th": 4343,
      "finger": 4344,
      "oxford": 4345,
      "providing": 4346,
      "1937": 4347,
      "heritage": 4348,
      "fiction": 4349,
      "situated": 4350,
      "designated": 4351,
      "allowing": 4352,
      "distribution": 4353,
      "hosted": 4354,
      "##est": 4355,
      "sight": 4356,
      "interview": 4357,
      "estimated": 4358,
      "reduced": 4359,
      "##ria": 4360,
      "toronto": 4361,
      "footballer": 4362,
      "keeping": 4363,
      "guys": 4364,
      "damn": 4365,
      "claim": 4366,
      "motion": 4367,
      "sport": 4368,
      "sixth": 4369,
      "stayed": 4370,
      "##ze": 4371,
      "en": 4372,
      "rear": 4373,
      "receive": 4374,
      "handed": 4375,
      "twelve": 4376,
      "dress": 4377,
      "audience": 4378,
      "granted": 4379,
      "brazil": 4380,
      "##well": 4381,
      "spirit": 4382,
      "##ated": 4383,
      "noticed": 4384,
      "etc": 4385,
      "olympic": 4386,
      "representative": 4387,
      "eric": 4388,
      "tight": 4389,
      "trouble": 4390,
      "reviews": 4391,
      "drink": 4392,
      "vampire": 4393,
      "missing": 4394,
      "roles": 4395,
      "ranked": 4396,
      "newly": 4397,
      "household": 4398,
      "finals": 4399,
      "wave": 4400,
      "critics": 4401,
      "##ee": 4402,
      "phase": 4403,
      "massachusetts": 4404,
      "pilot": 4405,
      "unlike": 4406,
      "philadelphia": 4407,
      "bright": 4408,
      "guns": 4409,
      "crown": 4410,
      "organizations": 4411,
      "roof": 4412,
      "42": 4413,
      "respectively": 4414,
      "clearly": 4415,
      "tongue": 4416,
      "marked": 4417,
      "circle": 4418,
      "fox": 4419,
      "korea": 4420,
      "bronze": 4421,
      "brian": 4422,
      "expanded": 4423,
      "sexual": 4424,
      "supply": 4425,
      "yourself": 4426,
      "inspired": 4427,
      "labour": 4428,
      "fc": 4429,
      "##ah": 4430,
      "reference": 4431,
      "vision": 4432,
      "draft": 4433,
      "connection": 4434,
      "brand": 4435,
      "reasons": 4436,
      "1935": 4437,
      "classic": 4438,
      "driving": 4439,
      "trip": 4440,
      "jesus": 4441,
      "cells": 4442,
      "entry": 4443,
      "1920": 4444,
      "neither": 4445,
      "trail": 4446,
      "claims": 4447,
      "atlantic": 4448,
      "orders": 4449,
      "labor": 4450,
      "nose": 4451,
      "afraid": 4452,
      "identified": 4453,
      "intelligence": 4454,
      "calls": 4455,
      "cancer": 4456,
      "attacked": 4457,
      "passing": 4458,
      "stephen": 4459,
      "positions": 4460,
      "imperial": 4461,
      "grey": 4462,
      "jason": 4463,
      "39": 4464,
      "sunday": 4465,
      "48": 4466,
      "swedish": 4467,
      "avoid": 4468,
      "extra": 4469,
      "uncle": 4470,
      "message": 4471,
      "covers": 4472,
      "allows": 4473,
      "surprise": 4474,
      "materials": 4475,
      "fame": 4476,
      "hunter": 4477,
      "##ji": 4478,
      "1930": 4479,
      "citizens": 4480,
      "figures": 4481,
      "davis": 4482,
      "environmental": 4483,
      "confirmed": 4484,
      "shit": 4485,
      "titles": 4486,
      "di": 4487,
      "performing": 4488,
      "difference": 4489,
      "acts": 4490,
      "attacks": 4491,
      "##ov": 4492,
      "existing": 4493,
      "votes": 4494,
      "opportunity": 4495,
      "nor": 4496,
      "shop": 4497,
      "entirely": 4498,
      "trains": 4499,
      "opposite": 4500,
      "pakistan": 4501,
      "##pa": 4502,
      "develop": 4503,
      "resulted": 4504,
      "representatives": 4505,
      "actions": 4506,
      "reality": 4507,
      "pressed": 4508,
      "##ish": 4509,
      "barely": 4510,
      "wine": 4511,
      "conversation": 4512,
      "faculty": 4513,
      "northwest": 4514,
      "ends": 4515,
      "documentary": 4516,
      "nuclear": 4517,
      "stock": 4518,
      "grace": 4519,
      "sets": 4520,
      "eat": 4521,
      "alternative": 4522,
      "##ps": 4523,
      "bag": 4524,
      "resulting": 4525,
      "creating": 4526,
      "surprised": 4527,
      "cemetery": 4528,
      "1919": 4529,
      "drop": 4530,
      "finding": 4531,
      "sarah": 4532,
      "cricket": 4533,
      "streets": 4534,
      "tradition": 4535,
      "ride": 4536,
      "1933": 4537,
      "exhibition": 4538,
      "target": 4539,
      "ear": 4540,
      "explained": 4541,
      "rain": 4542,
      "composer": 4543,
      "injury": 4544,
      "apartment": 4545,
      "municipal": 4546,
      "educational": 4547,
      "occupied": 4548,
      "netherlands": 4549,
      "clean": 4550,
      "billion": 4551,
      "constitution": 4552,
      "learn": 4553,
      "1914": 4554,
      "maximum": 4555,
      "classical": 4556,
      "francis": 4557,
      "lose": 4558,
      "opposition": 4559,
      "jose": 4560,
      "ontario": 4561,
      "bear": 4562,
      "core": 4563,
      "hills": 4564,
      "rolled": 4565,
      "ending": 4566,
      "drawn": 4567,
      "permanent": 4568,
      "fun": 4569,
      "##tes": 4570,
      "##lla": 4571,
      "lewis": 4572,
      "sites": 4573,
      "chamber": 4574,
      "ryan": 4575,
      "##way": 4576,
      "scoring": 4577,
      "height": 4578,
      "1934": 4579,
      "##house": 4580,
      "lyrics": 4581,
      "staring": 4582,
      "55": 4583,
      "officials": 4584,
      "1917": 4585,
      "snow": 4586,
      "oldest": 4587,
      "##tic": 4588,
      "orange": 4589,
      "##ger": 4590,
      "qualified": 4591,
      "interior": 4592,
      "apparently": 4593,
      "succeeded": 4594,
      "thousand": 4595,
      "dinner": 4596,
      "lights": 4597,
      "existence": 4598,
      "fans": 4599,
      "heavily": 4600,
      "41": 4601,
      "greatest": 4602,
      "conservative": 4603,
      "send": 4604,
      "bowl": 4605,
      "plus": 4606,
      "enter": 4607,
      "catch": 4608,
      "##un": 4609,
      "economy": 4610,
      "duty": 4611,
      "1929": 4612,
      "speech": 4613,
      "authorities": 4614,
      "princess": 4615,
      "performances": 4616,
      "versions": 4617,
      "shall": 4618,
      "graduate": 4619,
      "pictures": 4620,
      "effective": 4621,
      "remembered": 4622,
      "poetry": 4623,
      "desk": 4624,
      "crossed": 4625,
      "starring": 4626,
      "starts": 4627,
      "passenger": 4628,
      "sharp": 4629,
      "##ant": 4630,
      "acres": 4631,
      "ass": 4632,
      "weather": 4633,
      "falling": 4634,
      "rank": 4635,
      "fund": 4636,
      "supporting": 4637,
      "check": 4638,
      "adult": 4639,
      "publishing": 4640,
      "heads": 4641,
      "cm": 4642,
      "southeast": 4643,
      "lane": 4644,
      "##burg": 4645,
      "application": 4646,
      "bc": 4647,
      "##ura": 4648,
      "les": 4649,
      "condition": 4650,
      "transfer": 4651,
      "prevent": 4652,
      "display": 4653,
      "ex": 4654,
      "regions": 4655,
      "earl": 4656,
      "federation": 4657,
      "cool": 4658,
      "relatively": 4659,
      "answered": 4660,
      "besides": 4661,
      "1928": 4662,
      "obtained": 4663,
      "portion": 4664,
      "##town": 4665,
      "mix": 4666,
      "##ding": 4667,
      "reaction": 4668,
      "liked": 4669,
      "dean": 4670,
      "express": 4671,
      "peak": 4672,
      "1932": 4673,
      "##tte": 4674,
      "counter": 4675,
      "religion": 4676,
      "chain": 4677,
      "rare": 4678,
      "miller": 4679,
      "convention": 4680,
      "aid": 4681,
      "lie": 4682,
      "vehicles": 4683,
      "mobile": 4684,
      "perform": 4685,
      "squad": 4686,
      "wonder": 4687,
      "lying": 4688,
      "crazy": 4689,
      "sword": 4690,
      "##ping": 4691,
      "attempted": 4692,
      "centuries": 4693,
      "weren": 4694,
      "philosophy": 4695,
      "category": 4696,
      "##ize": 4697,
      "anna": 4698,
      "interested": 4699,
      "47": 4700,
      "sweden": 4701,
      "wolf": 4702,
      "frequently": 4703,
      "abandoned": 4704,
      "kg": 4705,
      "literary": 4706,
      "alliance": 4707,
      "task": 4708,
      "entitled": 4709,
      "##ay": 4710,
      "threw": 4711,
      "promotion": 4712,
      "factory": 4713,
      "tiny": 4714,
      "soccer": 4715,
      "visited": 4716,
      "matt": 4717,
      "fm": 4718,
      "achieved": 4719,
      "52": 4720,
      "defence": 4721,
      "internal": 4722,
      "persian": 4723,
      "43": 4724,
      "methods": 4725,
      "##ging": 4726,
      "arrested": 4727,
      "otherwise": 4728,
      "cambridge": 4729,
      "programming": 4730,
      "villages": 4731,
      "elementary": 4732,
      "districts": 4733,
      "rooms": 4734,
      "criminal": 4735,
      "conflict": 4736,
      "worry": 4737,
      "trained": 4738,
      "1931": 4739,
      "attempts": 4740,
      "waited": 4741,
      "signal": 4742,
      "bird": 4743,
      "truck": 4744,
      "subsequent": 4745,
      "programme": 4746,
      "##ol": 4747,
      "ad": 4748,
      "49": 4749,
      "communist": 4750,
      "details": 4751,
      "faith": 4752,
      "sector": 4753,
      "patrick": 4754,
      "carrying": 4755,
      "laugh": 4756,
      "##ss": 4757,
      "controlled": 4758,
      "korean": 4759,
      "showing": 4760,
      "origin": 4761,
      "fuel": 4762,
      "evil": 4763,
      "1927": 4764,
      "##ent": 4765,
      "brief": 4766,
      "identity": 4767,
      "darkness": 4768,
      "address": 4769,
      "pool": 4770,
      "missed": 4771,
      "publication": 4772,
      "web": 4773,
      "planet": 4774,
      "ian": 4775,
      "anne": 4776,
      "wings": 4777,
      "invited": 4778,
      "##tt": 4779,
      "briefly": 4780,
      "standards": 4781,
      "kissed": 4782,
      "##be": 4783,
      "ideas": 4784,
      "climate": 4785,
      "causing": 4786,
      "walter": 4787,
      "worse": 4788,
      "albert": 4789,
      "articles": 4790,
      "winners": 4791,
      "desire": 4792,
      "aged": 4793,
      "northeast": 4794,
      "dangerous": 4795,
      "gate": 4796,
      "doubt": 4797,
      "1922": 4798,
      "wooden": 4799,
      "multi": 4800,
      "##ky": 4801,
      "poet": 4802,
      "rising": 4803,
      "funding": 4804,
      "46": 4805,
      "communications": 4806,
      "communication": 4807,
      "violence": 4808,
      "copies": 4809,
      "prepared": 4810,
      "ford": 4811,
      "investigation": 4812,
      "skills": 4813,
      "1924": 4814,
      "pulling": 4815,
      "electronic": 4816,
      "##ak": 4817,
      "##ial": 4818,
      "##han": 4819,
      "containing": 4820,
      "ultimately": 4821,
      "offices": 4822,
      "singing": 4823,
      "understanding": 4824,
      "restaurant": 4825,
      "tomorrow": 4826,
      "fashion": 4827,
      "christ": 4828,
      "ward": 4829,
      "da": 4830,
      "pope": 4831,
      "stands": 4832,
      "5th": 4833,
      "flow": 4834,
      "studios": 4835,
      "aired": 4836,
      "commissioned": 4837,
      "contained": 4838,
      "exist": 4839,
      "fresh": 4840,
      "americans": 4841,
      "##per": 4842,
      "wrestling": 4843,
      "approved": 4844,
      "kid": 4845,
      "employed": 4846,
      "respect": 4847,
      "suit": 4848,
      "1925": 4849,
      "angel": 4850,
      "asking": 4851,
      "increasing": 4852,
      "frame": 4853,
      "angry": 4854,
      "selling": 4855,
      "1950s": 4856,
      "thin": 4857,
      "finds": 4858,
      "##nd": 4859,
      "temperature": 4860,
      "statement": 4861,
      "ali": 4862,
      "explain": 4863,
      "inhabitants": 4864,
      "towns": 4865,
      "extensive": 4866,
      "narrow": 4867,
      "51": 4868,
      "jane": 4869,
      "flowers": 4870,
      "images": 4871,
      "promise": 4872,
      "somewhere": 4873,
      "object": 4874,
      "fly": 4875,
      "closely": 4876,
      "##ls": 4877,
      "1912": 4878,
      "bureau": 4879,
      "cape": 4880,
      "1926": 4881,
      "weekly": 4882,
      "presidential": 4883,
      "legislative": 4884,
      "1921": 4885,
      "##ai": 4886,
      "##au": 4887,
      "launch": 4888,
      "founding": 4889,
      "##ny": 4890,
      "978": 4891,
      "##ring": 4892,
      "artillery": 4893,
      "strike": 4894,
      "un": 4895,
      "institutions": 4896,
      "roll": 4897,
      "writers": 4898,
      "landing": 4899,
      "chose": 4900,
      "kevin": 4901,
      "anymore": 4902,
      "pp": 4903,
      "##ut": 4904,
      "attorney": 4905,
      "fit": 4906,
      "dan": 4907,
      "billboard": 4908,
      "receiving": 4909,
      "agricultural": 4910,
      "breaking": 4911,
      "sought": 4912,
      "dave": 4913,
      "admitted": 4914,
      "lands": 4915,
      "mexican": 4916,
      "##bury": 4917,
      "charlie": 4918,
      "specifically": 4919,
      "hole": 4920,
      "iv": 4921,
      "howard": 4922,
      "credit": 4923,
      "moscow": 4924,
      "roads": 4925,
      "accident": 4926,
      "1923": 4927,
      "proved": 4928,
      "wear": 4929,
      "struck": 4930,
      "hey": 4931,
      "guards": 4932,
      "stuff": 4933,
      "slid": 4934,
      "expansion": 4935,
      "1915": 4936,
      "cat": 4937,
      "anthony": 4938,
      "##kin": 4939,
      "melbourne": 4940,
      "opposed": 4941,
      "sub": 4942,
      "southwest": 4943,
      "architect": 4944,
      "failure": 4945,
      "plane": 4946,
      "1916": 4947,
      "##ron": 4948,
      "map": 4949,
      "camera": 4950,
      "tank": 4951,
      "listen": 4952,
      "regarding": 4953,
      "wet": 4954,
      "introduction": 4955,
      "metropolitan": 4956,
      "link": 4957,
      "ep": 4958,
      "fighter": 4959,
      "inch": 4960,
      "grown": 4961,
      "gene": 4962,
      "anger": 4963,
      "fixed": 4964,
      "buy": 4965,
      "dvd": 4966,
      "khan": 4967,
      "domestic": 4968,
      "worldwide": 4969,
      "chapel": 4970,
      "mill": 4971,
      "functions": 4972,
      "examples": 4973,
      "##head": 4974,
      "developing": 4975,
      "1910": 4976,
      "turkey": 4977,
      "hits": 4978,
      "pocket": 4979,
      "antonio": 4980,
      "papers": 4981,
      "grow": 4982,
      "unless": 4983,
      "circuit": 4984,
      "18th": 4985,
      "concerned": 4986,
      "attached": 4987,
      "journalist": 4988,
      "selection": 4989,
      "journey": 4990,
      "converted": 4991,
      "provincial": 4992,
      "painted": 4993,
      "hearing": 4994,
      "aren": 4995,
      "bands": 4996,
      "negative": 4997,
      "aside": 4998,
      "wondered": 4999,
      "knight": 5000,
      "lap": 5001,
      "survey": 5002,
      "ma": 5003,
      "##ow": 5004,
      "noise": 5005,
      "billy": 5006,
      "##ium": 5007,
      "shooting": 5008,
      "guide": 5009,
      "bedroom": 5010,
      "priest": 5011,
      "resistance": 5012,
      "motor": 5013,
      "homes": 5014,
      "sounded": 5015,
      "giant": 5016,
      "##mer": 5017,
      "150": 5018,
      "scenes": 5019,
      "equal": 5020,
      "comic": 5021,
      "patients": 5022,
      "hidden": 5023,
      "solid": 5024,
      "actual": 5025,
      "bringing": 5026,
      "afternoon": 5027,
      "touched": 5028,
      "funds": 5029,
      "wedding": 5030,
      "consisted": 5031,
      "marie": 5032,
      "canal": 5033,
      "sr": 5034,
      "kim": 5035,
      "treaty": 5036,
      "turkish": 5037,
      "recognition": 5038,
      "residence": 5039,
      "cathedral": 5040,
      "broad": 5041,
      "knees": 5042,
      "incident": 5043,
      "shaped": 5044,
      "fired": 5045,
      "norwegian": 5046,
      "handle": 5047,
      "cheek": 5048,
      "contest": 5049,
      "represent": 5050,
      "##pe": 5051,
      "representing": 5052,
      "beauty": 5053,
      "##sen": 5054,
      "birds": 5055,
      "advantage": 5056,
      "emergency": 5057,
      "wrapped": 5058,
      "drawing": 5059,
      "notice": 5060,
      "pink": 5061,
      "broadcasting": 5062,
      "##ong": 5063,
      "somehow": 5064,
      "bachelor": 5065,
      "seventh": 5066,
      "collected": 5067,
      "registered": 5068,
      "establishment": 5069,
      "alan": 5070,
      "assumed": 5071,
      "chemical": 5072,
      "personnel": 5073,
      "roger": 5074,
      "retirement": 5075,
      "jeff": 5076,
      "portuguese": 5077,
      "wore": 5078,
      "tied": 5079,
      "device": 5080,
      "threat": 5081,
      "progress": 5082,
      "advance": 5083,
      "##ised": 5084,
      "banks": 5085,
      "hired": 5086,
      "manchester": 5087,
      "nfl": 5088,
      "teachers": 5089,
      "structures": 5090,
      "forever": 5091,
      "##bo": 5092,
      "tennis": 5093,
      "helping": 5094,
      "saturday": 5095,
      "sale": 5096,
      "applications": 5097,
      "junction": 5098,
      "hip": 5099,
      "incorporated": 5100,
      "neighborhood": 5101,
      "dressed": 5102,
      "ceremony": 5103,
      "##ds": 5104,
      "influenced": 5105,
      "hers": 5106,
      "visual": 5107,
      "stairs": 5108,
      "decades": 5109,
      "inner": 5110,
      "kansas": 5111,
      "hung": 5112,
      "hoped": 5113,
      "gain": 5114,
      "scheduled": 5115,
      "downtown": 5116,
      "engaged": 5117,
      "austria": 5118,
      "clock": 5119,
      "norway": 5120,
      "certainly": 5121,
      "pale": 5122,
      "protected": 5123,
      "1913": 5124,
      "victor": 5125,
      "employees": 5126,
      "plate": 5127,
      "putting": 5128,
      "surrounded": 5129,
      "##ists": 5130,
      "finishing": 5131,
      "blues": 5132,
      "tropical": 5133,
      "##ries": 5134,
      "minnesota": 5135,
      "consider": 5136,
      "philippines": 5137,
      "accept": 5138,
      "54": 5139,
      "retrieved": 5140,
      "1900": 5141,
      "concern": 5142,
      "anderson": 5143,
      "properties": 5144,
      "institution": 5145,
      "gordon": 5146,
      "successfully": 5147,
      "vietnam": 5148,
      "##dy": 5149,
      "backing": 5150,
      "outstanding": 5151,
      "muslim": 5152,
      "crossing": 5153,
      "folk": 5154,
      "producing": 5155,
      "usual": 5156,
      "demand": 5157,
      "occurs": 5158,
      "observed": 5159,
      "lawyer": 5160,
      "educated": 5161,
      "##ana": 5162,
      "kelly": 5163,
      "string": 5164,
      "pleasure": 5165,
      "budget": 5166,
      "items": 5167,
      "quietly": 5168,
      "colorado": 5169,
      "philip": 5170,
      "typical": 5171,
      "##worth": 5172,
      "derived": 5173,
      "600": 5174,
      "survived": 5175,
      "asks": 5176,
      "mental": 5177,
      "##ide": 5178,
      "56": 5179,
      "jake": 5180,
      "jews": 5181,
      "distinguished": 5182,
      "ltd": 5183,
      "1911": 5184,
      "sri": 5185,
      "extremely": 5186,
      "53": 5187,
      "athletic": 5188,
      "loud": 5189,
      "thousands": 5190,
      "worried": 5191,
      "shadow": 5192,
      "transportation": 5193,
      "horses": 5194,
      "weapon": 5195,
      "arena": 5196,
      "importance": 5197,
      "users": 5198,
      "tim": 5199,
      "objects": 5200,
      "contributed": 5201,
      "dragon": 5202,
      "douglas": 5203,
      "aware": 5204,
      "senator": 5205,
      "johnny": 5206,
      "jordan": 5207,
      "sisters": 5208,
      "engines": 5209,
      "flag": 5210,
      "investment": 5211,
      "samuel": 5212,
      "shock": 5213,
      "capable": 5214,
      "clark": 5215,
      "row": 5216,
      "wheel": 5217,
      "refers": 5218,
      "session": 5219,
      "familiar": 5220,
      "biggest": 5221,
      "wins": 5222,
      "hate": 5223,
      "maintained": 5224,
      "drove": 5225,
      "hamilton": 5226,
      "request": 5227,
      "expressed": 5228,
      "injured": 5229,
      "underground": 5230,
      "churches": 5231,
      "walker": 5232,
      "wars": 5233,
      "tunnel": 5234,
      "passes": 5235,
      "stupid": 5236,
      "agriculture": 5237,
      "softly": 5238,
      "cabinet": 5239,
      "regarded": 5240,
      "joining": 5241,
      "indiana": 5242,
      "##ea": 5243,
      "##ms": 5244,
      "push": 5245,
      "dates": 5246,
      "spend": 5247,
      "behavior": 5248,
      "woods": 5249,
      "protein": 5250,
      "gently": 5251,
      "chase": 5252,
      "morgan": 5253,
      "mention": 5254,
      "burning": 5255,
      "wake": 5256,
      "combination": 5257,
      "occur": 5258,
      "mirror": 5259,
      "leads": 5260,
      "jimmy": 5261,
      "indeed": 5262,
      "impossible": 5263,
      "singapore": 5264,
      "paintings": 5265,
      "covering": 5266,
      "##nes": 5267,
      "soldier": 5268,
      "locations": 5269,
      "attendance": 5270,
      "sell": 5271,
      "historian": 5272,
      "wisconsin": 5273,
      "invasion": 5274,
      "argued": 5275,
      "painter": 5276,
      "diego": 5277,
      "changing": 5278,
      "egypt": 5279,
      "##don": 5280,
      "experienced": 5281,
      "inches": 5282,
      "##ku": 5283,
      "missouri": 5284,
      "vol": 5285,
      "grounds": 5286,
      "spoken": 5287,
      "switzerland": 5288,
      "##gan": 5289,
      "reform": 5290,
      "rolling": 5291,
      "ha": 5292,
      "forget": 5293,
      "massive": 5294,
      "resigned": 5295,
      "burned": 5296,
      "allen": 5297,
      "tennessee": 5298,
      "locked": 5299,
      "values": 5300,
      "improved": 5301,
      "##mo": 5302,
      "wounded": 5303,
      "universe": 5304,
      "sick": 5305,
      "dating": 5306,
      "facing": 5307,
      "pack": 5308,
      "purchase": 5309,
      "user": 5310,
      "##pur": 5311,
      "moments": 5312,
      "##ul": 5313,
      "merged": 5314,
      "anniversary": 5315,
      "1908": 5316,
      "coal": 5317,
      "brick": 5318,
      "understood": 5319,
      "causes": 5320,
      "dynasty": 5321,
      "queensland": 5322,
      "establish": 5323,
      "stores": 5324,
      "crisis": 5325,
      "promote": 5326,
      "hoping": 5327,
      "views": 5328,
      "cards": 5329,
      "referee": 5330,
      "extension": 5331,
      "##si": 5332,
      "raise": 5333,
      "arizona": 5334,
      "improve": 5335,
      "colonial": 5336,
      "formal": 5337,
      "charged": 5338,
      "##rt": 5339,
      "palm": 5340,
      "lucky": 5341,
      "hide": 5342,
      "rescue": 5343,
      "faces": 5344,
      "95": 5345,
      "feelings": 5346,
      "candidates": 5347,
      "juan": 5348,
      "##ell": 5349,
      "goods": 5350,
      "6th": 5351,
      "courses": 5352,
      "weekend": 5353,
      "59": 5354,
      "luke": 5355,
      "cash": 5356,
      "fallen": 5357,
      "##om": 5358,
      "delivered": 5359,
      "affected": 5360,
      "installed": 5361,
      "carefully": 5362,
      "tries": 5363,
      "swiss": 5364,
      "hollywood": 5365,
      "costs": 5366,
      "lincoln": 5367,
      "responsibility": 5368,
      "##he": 5369,
      "shore": 5370,
      "file": 5371,
      "proper": 5372,
      "normally": 5373,
      "maryland": 5374,
      "assistance": 5375,
      "jump": 5376,
      "constant": 5377,
      "offering": 5378,
      "friendly": 5379,
      "waters": 5380,
      "persons": 5381,
      "realize": 5382,
      "contain": 5383,
      "trophy": 5384,
      "800": 5385,
      "partnership": 5386,
      "factor": 5387,
      "58": 5388,
      "musicians": 5389,
      "cry": 5390,
      "bound": 5391,
      "oregon": 5392,
      "indicated": 5393,
      "hero": 5394,
      "houston": 5395,
      "medium": 5396,
      "##ure": 5397,
      "consisting": 5398,
      "somewhat": 5399,
      "##ara": 5400,
      "57": 5401,
      "cycle": 5402,
      "##che": 5403,
      "beer": 5404,
      "moore": 5405,
      "frederick": 5406,
      "gotten": 5407,
      "eleven": 5408,
      "worst": 5409,
      "weak": 5410,
      "approached": 5411,
      "arranged": 5412,
      "chin": 5413,
      "loan": 5414,
      "universal": 5415,
      "bond": 5416,
      "fifteen": 5417,
      "pattern": 5418,
      "disappeared": 5419,
      "##ney": 5420,
      "translated": 5421,
      "##zed": 5422,
      "lip": 5423,
      "arab": 5424,
      "capture": 5425,
      "interests": 5426,
      "insurance": 5427,
      "##chi": 5428,
      "shifted": 5429,
      "cave": 5430,
      "prix": 5431,
      "warning": 5432,
      "sections": 5433,
      "courts": 5434,
      "coat": 5435,
      "plot": 5436,
      "smell": 5437,
      "feed": 5438,
      "golf": 5439,
      "favorite": 5440,
      "maintain": 5441,
      "knife": 5442,
      "vs": 5443,
      "voted": 5444,
      "degrees": 5445,
      "finance": 5446,
      "quebec": 5447,
      "opinion": 5448,
      "translation": 5449,
      "manner": 5450,
      "ruled": 5451,
      "operate": 5452,
      "productions": 5453,
      "choose": 5454,
      "musician": 5455,
      "discovery": 5456,
      "confused": 5457,
      "tired": 5458,
      "separated": 5459,
      "stream": 5460,
      "techniques": 5461,
      "committed": 5462,
      "attend": 5463,
      "ranking": 5464,
      "kings": 5465,
      "throw": 5466,
      "passengers": 5467,
      "measure": 5468,
      "horror": 5469,
      "fan": 5470,
      "mining": 5471,
      "sand": 5472,
      "danger": 5473,
      "salt": 5474,
      "calm": 5475,
      "decade": 5476,
      "dam": 5477,
      "require": 5478,
      "runner": 5479,
      "##ik": 5480,
      "rush": 5481,
      "associate": 5482,
      "greece": 5483,
      "##ker": 5484,
      "rivers": 5485,
      "consecutive": 5486,
      "matthew": 5487,
      "##ski": 5488,
      "sighed": 5489,
      "sq": 5490,
      "documents": 5491,
      "steam": 5492,
      "edited": 5493,
      "closing": 5494,
      "tie": 5495,
      "accused": 5496,
      "1905": 5497,
      "##ini": 5498,
      "islamic": 5499,
      "distributed": 5500,
      "directors": 5501,
      "organisation": 5502,
      "bruce": 5503,
      "7th": 5504,
      "breathing": 5505,
      "mad": 5506,
      "lit": 5507,
      "arrival": 5508,
      "concrete": 5509,
      "taste": 5510,
      "08": 5511,
      "composition": 5512,
      "shaking": 5513,
      "faster": 5514,
      "amateur": 5515,
      "adjacent": 5516,
      "stating": 5517,
      "1906": 5518,
      "twin": 5519,
      "flew": 5520,
      "##ran": 5521,
      "tokyo": 5522,
      "publications": 5523,
      "##tone": 5524,
      "obviously": 5525,
      "ridge": 5526,
      "storage": 5527,
      "1907": 5528,
      "carl": 5529,
      "pages": 5530,
      "concluded": 5531,
      "desert": 5532,
      "driven": 5533,
      "universities": 5534,
      "ages": 5535,
      "terminal": 5536,
      "sequence": 5537,
      "borough": 5538,
      "250": 5539,
      "constituency": 5540,
      "creative": 5541,
      "cousin": 5542,
      "economics": 5543,
      "dreams": 5544,
      "margaret": 5545,
      "notably": 5546,
      "reduce": 5547,
      "montreal": 5548,
      "mode": 5549,
      "17th": 5550,
      "ears": 5551,
      "saved": 5552,
      "jan": 5553,
      "vocal": 5554,
      "##ica": 5555,
      "1909": 5556,
      "andy": 5557,
      "##jo": 5558,
      "riding": 5559,
      "roughly": 5560,
      "threatened": 5561,
      "##ise": 5562,
      "meters": 5563,
      "meanwhile": 5564,
      "landed": 5565,
      "compete": 5566,
      "repeated": 5567,
      "grass": 5568,
      "czech": 5569,
      "regularly": 5570,
      "charges": 5571,
      "tea": 5572,
      "sudden": 5573,
      "appeal": 5574,
      "##ung": 5575,
      "solution": 5576,
      "describes": 5577,
      "pierre": 5578,
      "classification": 5579,
      "glad": 5580,
      "parking": 5581,
      "##ning": 5582,
      "belt": 5583,
      "physics": 5584,
      "99": 5585,
      "rachel": 5586,
      "add": 5587,
      "hungarian": 5588,
      "participate": 5589,
      "expedition": 5590,
      "damaged": 5591,
      "gift": 5592,
      "childhood": 5593,
      "85": 5594,
      "fifty": 5595,
      "##red": 5596,
      "mathematics": 5597,
      "jumped": 5598,
      "letting": 5599,
      "defensive": 5600,
      "mph": 5601,
      "##ux": 5602,
      "##gh": 5603,
      "testing": 5604,
      "##hip": 5605,
      "hundreds": 5606,
      "shoot": 5607,
      "owners": 5608,
      "matters": 5609,
      "smoke": 5610,
      "israeli": 5611,
      "kentucky": 5612,
      "dancing": 5613,
      "mounted": 5614,
      "grandfather": 5615,
      "emma": 5616,
      "designs": 5617,
      "profit": 5618,
      "argentina": 5619,
      "##gs": 5620,
      "truly": 5621,
      "li": 5622,
      "lawrence": 5623,
      "cole": 5624,
      "begun": 5625,
      "detroit": 5626,
      "willing": 5627,
      "branches": 5628,
      "smiling": 5629,
      "decide": 5630,
      "miami": 5631,
      "enjoyed": 5632,
      "recordings": 5633,
      "##dale": 5634,
      "poverty": 5635,
      "ethnic": 5636,
      "gay": 5637,
      "##bi": 5638,
      "gary": 5639,
      "arabic": 5640,
      "09": 5641,
      "accompanied": 5642,
      "##one": 5643,
      "##ons": 5644,
      "fishing": 5645,
      "determine": 5646,
      "residential": 5647,
      "acid": 5648,
      "##ary": 5649,
      "alice": 5650,
      "returns": 5651,
      "starred": 5652,
      "mail": 5653,
      "##ang": 5654,
      "jonathan": 5655,
      "strategy": 5656,
      "##ue": 5657,
      "net": 5658,
      "forty": 5659,
      "cook": 5660,
      "businesses": 5661,
      "equivalent": 5662,
      "commonwealth": 5663,
      "distinct": 5664,
      "ill": 5665,
      "##cy": 5666,
      "seriously": 5667,
      "##ors": 5668,
      "##ped": 5669,
      "shift": 5670,
      "harris": 5671,
      "replace": 5672,
      "rio": 5673,
      "imagine": 5674,
      "formula": 5675,
      "ensure": 5676,
      "##ber": 5677,
      "additionally": 5678,
      "scheme": 5679,
      "conservation": 5680,
      "occasionally": 5681,
      "purposes": 5682,
      "feels": 5683,
      "favor": 5684,
      "##and": 5685,
      "##ore": 5686,
      "1930s": 5687,
      "contrast": 5688,
      "hanging": 5689,
      "hunt": 5690,
      "movies": 5691,
      "1904": 5692,
      "instruments": 5693,
      "victims": 5694,
      "danish": 5695,
      "christopher": 5696,
      "busy": 5697,
      "demon": 5698,
      "sugar": 5699,
      "earliest": 5700,
      "colony": 5701,
      "studying": 5702,
      "balance": 5703,
      "duties": 5704,
      "##ks": 5705,
      "belgium": 5706,
      "slipped": 5707,
      "carter": 5708,
      "05": 5709,
      "visible": 5710,
      "stages": 5711,
      "iraq": 5712,
      "fifa": 5713,
      "##im": 5714,
      "commune": 5715,
      "forming": 5716,
      "zero": 5717,
      "07": 5718,
      "continuing": 5719,
      "talked": 5720,
      "counties": 5721,
      "legend": 5722,
      "bathroom": 5723,
      "option": 5724,
      "tail": 5725,
      "clay": 5726,
      "daughters": 5727,
      "afterwards": 5728,
      "severe": 5729,
      "jaw": 5730,
      "visitors": 5731,
      "##ded": 5732,
      "devices": 5733,
      "aviation": 5734,
      "russell": 5735,
      "kate": 5736,
      "##vi": 5737,
      "entering": 5738,
      "subjects": 5739,
      "##ino": 5740,
      "temporary": 5741,
      "swimming": 5742,
      "forth": 5743,
      "smooth": 5744,
      "ghost": 5745,
      "audio": 5746,
      "bush": 5747,
      "operates": 5748,
      "rocks": 5749,
      "movements": 5750,
      "signs": 5751,
      "eddie": 5752,
      "##tz": 5753,
      "ann": 5754,
      "voices": 5755,
      "honorary": 5756,
      "06": 5757,
      "memories": 5758,
      "dallas": 5759,
      "pure": 5760,
      "measures": 5761,
      "racial": 5762,
      "promised": 5763,
      "66": 5764,
      "harvard": 5765,
      "ceo": 5766,
      "16th": 5767,
      "parliamentary": 5768,
      "indicate": 5769,
      "benefit": 5770,
      "flesh": 5771,
      "dublin": 5772,
      "louisiana": 5773,
      "1902": 5774,
      "1901": 5775,
      "patient": 5776,
      "sleeping": 5777,
      "1903": 5778,
      "membership": 5779,
      "coastal": 5780,
      "medieval": 5781,
      "wanting": 5782,
      "element": 5783,
      "scholars": 5784,
      "rice": 5785,
      "62": 5786,
      "limit": 5787,
      "survive": 5788,
      "makeup": 5789,
      "rating": 5790,
      "definitely": 5791,
      "collaboration": 5792,
      "obvious": 5793,
      "##tan": 5794,
      "boss": 5795,
      "ms": 5796,
      "baron": 5797,
      "birthday": 5798,
      "linked": 5799,
      "soil": 5800,
      "diocese": 5801,
      "##lan": 5802,
      "ncaa": 5803,
      "##mann": 5804,
      "offensive": 5805,
      "shell": 5806,
      "shouldn": 5807,
      "waist": 5808,
      "##tus": 5809,
      "plain": 5810,
      "ross": 5811,
      "organ": 5812,
      "resolution": 5813,
      "manufacturing": 5814,
      "adding": 5815,
      "relative": 5816,
      "kennedy": 5817,
      "98": 5818,
      "whilst": 5819,
      "moth": 5820,
      "marketing": 5821,
      "gardens": 5822,
      "crash": 5823,
      "72": 5824,
      "heading": 5825,
      "partners": 5826,
      "credited": 5827,
      "carlos": 5828,
      "moves": 5829,
      "cable": 5830,
      "##zi": 5831,
      "marshall": 5832,
      "##out": 5833,
      "depending": 5834,
      "bottle": 5835,
      "represents": 5836,
      "rejected": 5837,
      "responded": 5838,
      "existed": 5839,
      "04": 5840,
      "jobs": 5841,
      "denmark": 5842,
      "lock": 5843,
      "##ating": 5844,
      "treated": 5845,
      "graham": 5846,
      "routes": 5847,
      "talent": 5848,
      "commissioner": 5849,
      "drugs": 5850,
      "secure": 5851,
      "tests": 5852,
      "reign": 5853,
      "restored": 5854,
      "photography": 5855,
      "##gi": 5856,
      "contributions": 5857,
      "oklahoma": 5858,
      "designer": 5859,
      "disc": 5860,
      "grin": 5861,
      "seattle": 5862,
      "robin": 5863,
      "paused": 5864,
      "atlanta": 5865,
      "unusual": 5866,
      "##gate": 5867,
      "praised": 5868,
      "las": 5869,
      "laughing": 5870,
      "satellite": 5871,
      "hungary": 5872,
      "visiting": 5873,
      "##sky": 5874,
      "interesting": 5875,
      "factors": 5876,
      "deck": 5877,
      "poems": 5878,
      "norman": 5879,
      "##water": 5880,
      "stuck": 5881,
      "speaker": 5882,
      "rifle": 5883,
      "domain": 5884,
      "premiered": 5885,
      "##her": 5886,
      "dc": 5887,
      "comics": 5888,
      "actors": 5889,
      "01": 5890,
      "reputation": 5891,
      "eliminated": 5892,
      "8th": 5893,
      "ceiling": 5894,
      "prisoners": 5895,
      "script": 5896,
      "##nce": 5897,
      "leather": 5898,
      "austin": 5899,
      "mississippi": 5900,
      "rapidly": 5901,
      "admiral": 5902,
      "parallel": 5903,
      "charlotte": 5904,
      "guilty": 5905,
      "tools": 5906,
      "gender": 5907,
      "divisions": 5908,
      "fruit": 5909,
      "##bs": 5910,
      "laboratory": 5911,
      "nelson": 5912,
      "fantasy": 5913,
      "marry": 5914,
      "rapid": 5915,
      "aunt": 5916,
      "tribe": 5917,
      "requirements": 5918,
      "aspects": 5919,
      "suicide": 5920,
      "amongst": 5921,
      "adams": 5922,
      "bone": 5923,
      "ukraine": 5924,
      "abc": 5925,
      "kick": 5926,
      "sees": 5927,
      "edinburgh": 5928,
      "clothing": 5929,
      "column": 5930,
      "rough": 5931,
      "gods": 5932,
      "hunting": 5933,
      "broadway": 5934,
      "gathered": 5935,
      "concerns": 5936,
      "##ek": 5937,
      "spending": 5938,
      "ty": 5939,
      "12th": 5940,
      "snapped": 5941,
      "requires": 5942,
      "solar": 5943,
      "bones": 5944,
      "cavalry": 5945,
      "##tta": 5946,
      "iowa": 5947,
      "drinking": 5948,
      "waste": 5949,
      "index": 5950,
      "franklin": 5951,
      "charity": 5952,
      "thompson": 5953,
      "stewart": 5954,
      "tip": 5955,
      "flash": 5956,
      "landscape": 5957,
      "friday": 5958,
      "enjoy": 5959,
      "singh": 5960,
      "poem": 5961,
      "listening": 5962,
      "##back": 5963,
      "eighth": 5964,
      "fred": 5965,
      "differences": 5966,
      "adapted": 5967,
      "bomb": 5968,
      "ukrainian": 5969,
      "surgery": 5970,
      "corporate": 5971,
      "masters": 5972,
      "anywhere": 5973,
      "##more": 5974,
      "waves": 5975,
      "odd": 5976,
      "sean": 5977,
      "portugal": 5978,
      "orleans": 5979,
      "dick": 5980,
      "debate": 5981,
      "kent": 5982,
      "eating": 5983,
      "puerto": 5984,
      "cleared": 5985,
      "96": 5986,
      "expect": 5987,
      "cinema": 5988,
      "97": 5989,
      "guitarist": 5990,
      "blocks": 5991,
      "electrical": 5992,
      "agree": 5993,
      "involving": 5994,
      "depth": 5995,
      "dying": 5996,
      "panel": 5997,
      "struggle": 5998,
      "##ged": 5999,
      "peninsula": 6000,
      "adults": 6001,
      "novels": 6002,
      "emerged": 6003,
      "vienna": 6004,
      "metro": 6005,
      "debuted": 6006,
      "shoes": 6007,
      "tamil": 6008,
      "songwriter": 6009,
      "meets": 6010,
      "prove": 6011,
      "beating": 6012,
      "instance": 6013,
      "heaven": 6014,
      "scared": 6015,
      "sending": 6016,
      "marks": 6017,
      "artistic": 6018,
      "passage": 6019,
      "superior": 6020,
      "03": 6021,
      "significantly": 6022,
      "shopping": 6023,
      "##tive": 6024,
      "retained": 6025,
      "##izing": 6026,
      "malaysia": 6027,
      "technique": 6028,
      "cheeks": 6029,
      "##ola": 6030,
      "warren": 6031,
      "maintenance": 6032,
      "destroy": 6033,
      "extreme": 6034,
      "allied": 6035,
      "120": 6036,
      "appearing": 6037,
      "##yn": 6038,
      "fill": 6039,
      "advice": 6040,
      "alabama": 6041,
      "qualifying": 6042,
      "policies": 6043,
      "cleveland": 6044,
      "hat": 6045,
      "battery": 6046,
      "smart": 6047,
      "authors": 6048,
      "10th": 6049,
      "soundtrack": 6050,
      "acted": 6051,
      "dated": 6052,
      "lb": 6053,
      "glance": 6054,
      "equipped": 6055,
      "coalition": 6056,
      "funny": 6057,
      "outer": 6058,
      "ambassador": 6059,
      "roy": 6060,
      "possibility": 6061,
      "couples": 6062,
      "campbell": 6063,
      "dna": 6064,
      "loose": 6065,
      "ethan": 6066,
      "supplies": 6067,
      "1898": 6068,
      "gonna": 6069,
      "88": 6070,
      "monster": 6071,
      "##res": 6072,
      "shake": 6073,
      "agents": 6074,
      "frequency": 6075,
      "springs": 6076,
      "dogs": 6077,
      "practices": 6078,
      "61": 6079,
      "gang": 6080,
      "plastic": 6081,
      "easier": 6082,
      "suggests": 6083,
      "gulf": 6084,
      "blade": 6085,
      "exposed": 6086,
      "colors": 6087,
      "industries": 6088,
      "markets": 6089,
      "pan": 6090,
      "nervous": 6091,
      "electoral": 6092,
      "charts": 6093,
      "legislation": 6094,
      "ownership": 6095,
      "##idae": 6096,
      "mac": 6097,
      "appointment": 6098,
      "shield": 6099,
      "copy": 6100,
      "assault": 6101,
      "socialist": 6102,
      "abbey": 6103,
      "monument": 6104,
      "license": 6105,
      "throne": 6106,
      "employment": 6107,
      "jay": 6108,
      "93": 6109,
      "replacement": 6110,
      "charter": 6111,
      "cloud": 6112,
      "powered": 6113,
      "suffering": 6114,
      "accounts": 6115,
      "oak": 6116,
      "connecticut": 6117,
      "strongly": 6118,
      "wright": 6119,
      "colour": 6120,
      "crystal": 6121,
      "13th": 6122,
      "context": 6123,
      "welsh": 6124,
      "networks": 6125,
      "voiced": 6126,
      "gabriel": 6127,
      "jerry": 6128,
      "##cing": 6129,
      "forehead": 6130,
      "mp": 6131,
      "##ens": 6132,
      "manage": 6133,
      "schedule": 6134,
      "totally": 6135,
      "remix": 6136,
      "##ii": 6137,
      "forests": 6138,
      "occupation": 6139,
      "print": 6140,
      "nicholas": 6141,
      "brazilian": 6142,
      "strategic": 6143,
      "vampires": 6144,
      "engineers": 6145,
      "76": 6146,
      "roots": 6147,
      "seek": 6148,
      "correct": 6149,
      "instrumental": 6150,
      "und": 6151,
      "alfred": 6152,
      "backed": 6153,
      "hop": 6154,
      "##des": 6155,
      "stanley": 6156,
      "robinson": 6157,
      "traveled": 6158,
      "wayne": 6159,
      "welcome": 6160,
      "austrian": 6161,
      "achieve": 6162,
      "67": 6163,
      "exit": 6164,
      "rates": 6165,
      "1899": 6166,
      "strip": 6167,
      "whereas": 6168,
      "##cs": 6169,
      "sing": 6170,
      "deeply": 6171,
      "adventure": 6172,
      "bobby": 6173,
      "rick": 6174,
      "jamie": 6175,
      "careful": 6176,
      "components": 6177,
      "cap": 6178,
      "useful": 6179,
      "personality": 6180,
      "knee": 6181,
      "##shi": 6182,
      "pushing": 6183,
      "hosts": 6184,
      "02": 6185,
      "protest": 6186,
      "ca": 6187,
      "ottoman": 6188,
      "symphony": 6189,
      "##sis": 6190,
      "63": 6191,
      "boundary": 6192,
      "1890": 6193,
      "processes": 6194,
      "considering": 6195,
      "considerable": 6196,
      "tons": 6197,
      "##work": 6198,
      "##ft": 6199,
      "##nia": 6200,
      "cooper": 6201,
      "trading": 6202,
      "dear": 6203,
      "conduct": 6204,
      "91": 6205,
      "illegal": 6206,
      "apple": 6207,
      "revolutionary": 6208,
      "holiday": 6209,
      "definition": 6210,
      "harder": 6211,
      "##van": 6212,
      "jacob": 6213,
      "circumstances": 6214,
      "destruction": 6215,
      "##lle": 6216,
      "popularity": 6217,
      "grip": 6218,
      "classified": 6219,
      "liverpool": 6220,
      "donald": 6221,
      "baltimore": 6222,
      "flows": 6223,
      "seeking": 6224,
      "honour": 6225,
      "approval": 6226,
      "92": 6227,
      "mechanical": 6228,
      "till": 6229,
      "happening": 6230,
      "statue": 6231,
      "critic": 6232,
      "increasingly": 6233,
      "immediate": 6234,
      "describe": 6235,
      "commerce": 6236,
      "stare": 6237,
      "##ster": 6238,
      "indonesia": 6239,
      "meat": 6240,
      "rounds": 6241,
      "boats": 6242,
      "baker": 6243,
      "orthodox": 6244,
      "depression": 6245,
      "formally": 6246,
      "worn": 6247,
      "naked": 6248,
      "claire": 6249,
      "muttered": 6250,
      "sentence": 6251,
      "11th": 6252,
      "emily": 6253,
      "document": 6254,
      "77": 6255,
      "criticism": 6256,
      "wished": 6257,
      "vessel": 6258,
      "spiritual": 6259,
      "bent": 6260,
      "virgin": 6261,
      "parker": 6262,
      "minimum": 6263,
      "murray": 6264,
      "lunch": 6265,
      "danny": 6266,
      "printed": 6267,
      "compilation": 6268,
      "keyboards": 6269,
      "false": 6270,
      "blow": 6271,
      "belonged": 6272,
      "68": 6273,
      "raising": 6274,
      "78": 6275,
      "cutting": 6276,
      "##board": 6277,
      "pittsburgh": 6278,
      "##up": 6279,
      "9th": 6280,
      "shadows": 6281,
      "81": 6282,
      "hated": 6283,
      "indigenous": 6284,
      "jon": 6285,
      "15th": 6286,
      "barry": 6287,
      "scholar": 6288,
      "ah": 6289,
      "##zer": 6290,
      "oliver": 6291,
      "##gy": 6292,
      "stick": 6293,
      "susan": 6294,
      "meetings": 6295,
      "attracted": 6296,
      "spell": 6297,
      "romantic": 6298,
      "##ver": 6299,
      "ye": 6300,
      "1895": 6301,
      "photo": 6302,
      "demanded": 6303,
      "customers": 6304,
      "##ac": 6305,
      "1896": 6306,
      "logan": 6307,
      "revival": 6308,
      "keys": 6309,
      "modified": 6310,
      "commanded": 6311,
      "jeans": 6312,
      "##ious": 6313,
      "upset": 6314,
      "raw": 6315,
      "phil": 6316,
      "detective": 6317,
      "hiding": 6318,
      "resident": 6319,
      "vincent": 6320,
      "##bly": 6321,
      "experiences": 6322,
      "diamond": 6323,
      "defeating": 6324,
      "coverage": 6325,
      "lucas": 6326,
      "external": 6327,
      "parks": 6328,
      "franchise": 6329,
      "helen": 6330,
      "bible": 6331,
      "successor": 6332,
      "percussion": 6333,
      "celebrated": 6334,
      "il": 6335,
      "lift": 6336,
      "profile": 6337,
      "clan": 6338,
      "romania": 6339,
      "##ied": 6340,
      "mills": 6341,
      "##su": 6342,
      "nobody": 6343,
      "achievement": 6344,
      "shrugged": 6345,
      "fault": 6346,
      "1897": 6347,
      "rhythm": 6348,
      "initiative": 6349,
      "breakfast": 6350,
      "carbon": 6351,
      "700": 6352,
      "69": 6353,
      "lasted": 6354,
      "violent": 6355,
      "74": 6356,
      "wound": 6357,
      "ken": 6358,
      "killer": 6359,
      "gradually": 6360,
      "filmed": 6361,
      "°c": 6362,
      "dollars": 6363,
      "processing": 6364,
      "94": 6365,
      "remove": 6366,
      "criticized": 6367,
      "guests": 6368,
      "sang": 6369,
      "chemistry": 6370,
      "##vin": 6371,
      "legislature": 6372,
      "disney": 6373,
      "##bridge": 6374,
      "uniform": 6375,
      "escaped": 6376,
      "integrated": 6377,
      "proposal": 6378,
      "purple": 6379,
      "denied": 6380,
      "liquid": 6381,
      "karl": 6382,
      "influential": 6383,
      "morris": 6384,
      "nights": 6385,
      "stones": 6386,
      "intense": 6387,
      "experimental": 6388,
      "twisted": 6389,
      "71": 6390,
      "84": 6391,
      "##ld": 6392,
      "pace": 6393,
      "nazi": 6394,
      "mitchell": 6395,
      "ny": 6396,
      "blind": 6397,
      "reporter": 6398,
      "newspapers": 6399,
      "14th": 6400,
      "centers": 6401,
      "burn": 6402,
      "basin": 6403,
      "forgotten": 6404,
      "surviving": 6405,
      "filed": 6406,
      "collections": 6407,
      "monastery": 6408,
      "losses": 6409,
      "manual": 6410,
      "couch": 6411,
      "description": 6412,
      "appropriate": 6413,
      "merely": 6414,
      "tag": 6415,
      "missions": 6416,
      "sebastian": 6417,
      "restoration": 6418,
      "replacing": 6419,
      "triple": 6420,
      "73": 6421,
      "elder": 6422,
      "julia": 6423,
      "warriors": 6424,
      "benjamin": 6425,
      "julian": 6426,
      "convinced": 6427,
      "stronger": 6428,
      "amazing": 6429,
      "declined": 6430,
      "versus": 6431,
      "merchant": 6432,
      "happens": 6433,
      "output": 6434,
      "finland": 6435,
      "bare": 6436,
      "barbara": 6437,
      "absence": 6438,
      "ignored": 6439,
      "dawn": 6440,
      "injuries": 6441,
      "##port": 6442,
      "producers": 6443,
      "##ram": 6444,
      "82": 6445,
      "luis": 6446,
      "##ities": 6447,
      "kw": 6448,
      "admit": 6449,
      "expensive": 6450,
      "electricity": 6451,
      "nba": 6452,
      "exception": 6453,
      "symbol": 6454,
      "##ving": 6455,
      "ladies": 6456,
      "shower": 6457,
      "sheriff": 6458,
      "characteristics": 6459,
      "##je": 6460,
      "aimed": 6461,
      "button": 6462,
      "ratio": 6463,
      "effectively": 6464,
      "summit": 6465,
      "angle": 6466,
      "jury": 6467,
      "bears": 6468,
      "foster": 6469,
      "vessels": 6470,
      "pants": 6471,
      "executed": 6472,
      "evans": 6473,
      "dozen": 6474,
      "advertising": 6475,
      "kicked": 6476,
      "patrol": 6477,
      "1889": 6478,
      "competitions": 6479,
      "lifetime": 6480,
      "principles": 6481,
      "athletics": 6482,
      "##logy": 6483,
      "birmingham": 6484,
      "sponsored": 6485,
      "89": 6486,
      "rob": 6487,
      "nomination": 6488,
      "1893": 6489,
      "acoustic": 6490,
      "##sm": 6491,
      "creature": 6492,
      "longest": 6493,
      "##tra": 6494,
      "credits": 6495,
      "harbor": 6496,
      "dust": 6497,
      "josh": 6498,
      "##so": 6499,
      "territories": 6500,
      "milk": 6501,
      "infrastructure": 6502,
      "completion": 6503,
      "thailand": 6504,
      "indians": 6505,
      "leon": 6506,
      "archbishop": 6507,
      "##sy": 6508,
      "assist": 6509,
      "pitch": 6510,
      "blake": 6511,
      "arrangement": 6512,
      "girlfriend": 6513,
      "serbian": 6514,
      "operational": 6515,
      "hence": 6516,
      "sad": 6517,
      "scent": 6518,
      "fur": 6519,
      "dj": 6520,
      "sessions": 6521,
      "hp": 6522,
      "refer": 6523,
      "rarely": 6524,
      "##ora": 6525,
      "exists": 6526,
      "1892": 6527,
      "##ten": 6528,
      "scientists": 6529,
      "dirty": 6530,
      "penalty": 6531,
      "burst": 6532,
      "portrait": 6533,
      "seed": 6534,
      "79": 6535,
      "pole": 6536,
      "limits": 6537,
      "rival": 6538,
      "1894": 6539,
      "stable": 6540,
      "alpha": 6541,
      "grave": 6542,
      "constitutional": 6543,
      "alcohol": 6544,
      "arrest": 6545,
      "flower": 6546,
      "mystery": 6547,
      "devil": 6548,
      "architectural": 6549,
      "relationships": 6550,
      "greatly": 6551,
      "habitat": 6552,
      "##istic": 6553,
      "larry": 6554,
      "progressive": 6555,
      "remote": 6556,
      "cotton": 6557,
      "##ics": 6558,
      "##ok": 6559,
      "preserved": 6560,
      "reaches": 6561,
      "##ming": 6562,
      "cited": 6563,
      "86": 6564,
      "vast": 6565,
      "scholarship": 6566,
      "decisions": 6567,
      "cbs": 6568,
      "joy": 6569,
      "teach": 6570,
      "1885": 6571,
      "editions": 6572,
      "knocked": 6573,
      "eve": 6574,
      "searching": 6575,
      "partly": 6576,
      "participation": 6577,
      "gap": 6578,
      "animated": 6579,
      "fate": 6580,
      "excellent": 6581,
      "##ett": 6582,
      "na": 6583,
      "87": 6584,
      "alternate": 6585,
      "saints": 6586,
      "youngest": 6587,
      "##ily": 6588,
      "climbed": 6589,
      "##ita": 6590,
      "##tors": 6591,
      "suggest": 6592,
      "##ct": 6593,
      "discussion": 6594,
      "staying": 6595,
      "choir": 6596,
      "lakes": 6597,
      "jacket": 6598,
      "revenue": 6599,
      "nevertheless": 6600,
      "peaked": 6601,
      "instrument": 6602,
      "wondering": 6603,
      "annually": 6604,
      "managing": 6605,
      "neil": 6606,
      "1891": 6607,
      "signing": 6608,
      "terry": 6609,
      "##ice": 6610,
      "apply": 6611,
      "clinical": 6612,
      "brooklyn": 6613,
      "aim": 6614,
      "catherine": 6615,
      "fuck": 6616,
      "farmers": 6617,
      "figured": 6618,
      "ninth": 6619,
      "pride": 6620,
      "hugh": 6621,
      "evolution": 6622,
      "ordinary": 6623,
      "involvement": 6624,
      "comfortable": 6625,
      "shouted": 6626,
      "tech": 6627,
      "encouraged": 6628,
      "taiwan": 6629,
      "representation": 6630,
      "sharing": 6631,
      "##lia": 6632,
      "##em": 6633,
      "panic": 6634,
      "exact": 6635,
      "cargo": 6636,
      "competing": 6637,
      "fat": 6638,
      "cried": 6639,
      "83": 6640,
      "1920s": 6641,
      "occasions": 6642,
      "pa": 6643,
      "cabin": 6644,
      "borders": 6645,
      "utah": 6646,
      "marcus": 6647,
      "##isation": 6648,
      "badly": 6649,
      "muscles": 6650,
      "##ance": 6651,
      "victorian": 6652,
      "transition": 6653,
      "warner": 6654,
      "bet": 6655,
      "permission": 6656,
      "##rin": 6657,
      "slave": 6658,
      "terrible": 6659,
      "similarly": 6660,
      "shares": 6661,
      "seth": 6662,
      "uefa": 6663,
      "possession": 6664,
      "medals": 6665,
      "benefits": 6666,
      "colleges": 6667,
      "lowered": 6668,
      "perfectly": 6669,
      "mall": 6670,
      "transit": 6671,
      "##ye": 6672,
      "##kar": 6673,
      "publisher": 6674,
      "##ened": 6675,
      "harrison": 6676,
      "deaths": 6677,
      "elevation": 6678,
      "##ae": 6679,
      "asleep": 6680,
      "machines": 6681,
      "sigh": 6682,
      "ash": 6683,
      "hardly": 6684,
      "argument": 6685,
      "occasion": 6686,
      "parent": 6687,
      "leo": 6688,
      "decline": 6689,
      "1888": 6690,
      "contribution": 6691,
      "##ua": 6692,
      "concentration": 6693,
      "1000": 6694,
      "opportunities": 6695,
      "hispanic": 6696,
      "guardian": 6697,
      "extent": 6698,
      "emotions": 6699,
      "hips": 6700,
      "mason": 6701,
      "volumes": 6702,
      "bloody": 6703,
      "controversy": 6704,
      "diameter": 6705,
      "steady": 6706,
      "mistake": 6707,
      "phoenix": 6708,
      "identify": 6709,
      "violin": 6710,
      "##sk": 6711,
      "departure": 6712,
      "richmond": 6713,
      "spin": 6714,
      "funeral": 6715,
      "enemies": 6716,
      "1864": 6717,
      "gear": 6718,
      "literally": 6719,
      "connor": 6720,
      "random": 6721,
      "sergeant": 6722,
      "grab": 6723,
      "confusion": 6724,
      "1865": 6725,
      "transmission": 6726,
      "informed": 6727,
      "op": 6728,
      "leaning": 6729,
      "sacred": 6730,
      "suspended": 6731,
      "thinks": 6732,
      "gates": 6733,
      "portland": 6734,
      "luck": 6735,
      "agencies": 6736,
      "yours": 6737,
      "hull": 6738,
      "expert": 6739,
      "muscle": 6740,
      "layer": 6741,
      "practical": 6742,
      "sculpture": 6743,
      "jerusalem": 6744,
      "latest": 6745,
      "lloyd": 6746,
      "statistics": 6747,
      "deeper": 6748,
      "recommended": 6749,
      "warrior": 6750,
      "arkansas": 6751,
      "mess": 6752,
      "supports": 6753,
      "greg": 6754,
      "eagle": 6755,
      "1880": 6756,
      "recovered": 6757,
      "rated": 6758,
      "concerts": 6759,
      "rushed": 6760,
      "##ano": 6761,
      "stops": 6762,
      "eggs": 6763,
      "files": 6764,
      "premiere": 6765,
      "keith": 6766,
      "##vo": 6767,
      "delhi": 6768,
      "turner": 6769,
      "pit": 6770,
      "affair": 6771,
      "belief": 6772,
      "paint": 6773,
      "##zing": 6774,
      "mate": 6775,
      "##ach": 6776,
      "##ev": 6777,
      "victim": 6778,
      "##ology": 6779,
      "withdrew": 6780,
      "bonus": 6781,
      "styles": 6782,
      "fled": 6783,
      "##ud": 6784,
      "glasgow": 6785,
      "technologies": 6786,
      "funded": 6787,
      "nbc": 6788,
      "adaptation": 6789,
      "##ata": 6790,
      "portrayed": 6791,
      "cooperation": 6792,
      "supporters": 6793,
      "judges": 6794,
      "bernard": 6795,
      "justin": 6796,
      "hallway": 6797,
      "ralph": 6798,
      "##ick": 6799,
      "graduating": 6800,
      "controversial": 6801,
      "distant": 6802,
      "continental": 6803,
      "spider": 6804,
      "bite": 6805,
      "##ho": 6806,
      "recognize": 6807,
      "intention": 6808,
      "mixing": 6809,
      "##ese": 6810,
      "egyptian": 6811,
      "bow": 6812,
      "tourism": 6813,
      "suppose": 6814,
      "claiming": 6815,
      "tiger": 6816,
      "dominated": 6817,
      "participants": 6818,
      "vi": 6819,
      "##ru": 6820,
      "nurse": 6821,
      "partially": 6822,
      "tape": 6823,
      "##rum": 6824,
      "psychology": 6825,
      "##rn": 6826,
      "essential": 6827,
      "touring": 6828,
      "duo": 6829,
      "voting": 6830,
      "civilian": 6831,
      "emotional": 6832,
      "channels": 6833,
      "##king": 6834,
      "apparent": 6835,
      "hebrew": 6836,
      "1887": 6837,
      "tommy": 6838,
      "carrier": 6839,
      "intersection": 6840,
      "beast": 6841,
      "hudson": 6842,
      "##gar": 6843,
      "##zo": 6844,
      "lab": 6845,
      "nova": 6846,
      "bench": 6847,
      "discuss": 6848,
      "costa": 6849,
      "##ered": 6850,
      "detailed": 6851,
      "behalf": 6852,
      "drivers": 6853,
      "unfortunately": 6854,
      "obtain": 6855,
      "##lis": 6856,
      "rocky": 6857,
      "##dae": 6858,
      "siege": 6859,
      "friendship": 6860,
      "honey": 6861,
      "##rian": 6862,
      "1861": 6863,
      "amy": 6864,
      "hang": 6865,
      "posted": 6866,
      "governments": 6867,
      "collins": 6868,
      "respond": 6869,
      "wildlife": 6870,
      "preferred": 6871,
      "operator": 6872,
      "##po": 6873,
      "laura": 6874,
      "pregnant": 6875,
      "videos": 6876,
      "dennis": 6877,
      "suspected": 6878,
      "boots": 6879,
      "instantly": 6880,
      "weird": 6881,
      "automatic": 6882,
      "businessman": 6883,
      "alleged": 6884,
      "placing": 6885,
      "throwing": 6886,
      "ph": 6887,
      "mood": 6888,
      "1862": 6889,
      "perry": 6890,
      "venue": 6891,
      "jet": 6892,
      "remainder": 6893,
      "##lli": 6894,
      "##ci": 6895,
      "passion": 6896,
      "biological": 6897,
      "boyfriend": 6898,
      "1863": 6899,
      "dirt": 6900,
      "buffalo": 6901,
      "ron": 6902,
      "segment": 6903,
      "fa": 6904,
      "abuse": 6905,
      "##era": 6906,
      "genre": 6907,
      "thrown": 6908,
      "stroke": 6909,
      "colored": 6910,
      "stress": 6911,
      "exercise": 6912,
      "displayed": 6913,
      "##gen": 6914,
      "struggled": 6915,
      "##tti": 6916,
      "abroad": 6917,
      "dramatic": 6918,
      "wonderful": 6919,
      "thereafter": 6920,
      "madrid": 6921,
      "component": 6922,
      "widespread": 6923,
      "##sed": 6924,
      "tale": 6925,
      "citizen": 6926,
      "todd": 6927,
      "monday": 6928,
      "1886": 6929,
      "vancouver": 6930,
      "overseas": 6931,
      "forcing": 6932,
      "crying": 6933,
      "descent": 6934,
      "##ris": 6935,
      "discussed": 6936,
      "substantial": 6937,
      "ranks": 6938,
      "regime": 6939,
      "1870": 6940,
      "provinces": 6941,
      "switch": 6942,
      "drum": 6943,
      "zane": 6944,
      "ted": 6945,
      "tribes": 6946,
      "proof": 6947,
      "lp": 6948,
      "cream": 6949,
      "researchers": 6950,
      "volunteer": 6951,
      "manor": 6952,
      "silk": 6953,
      "milan": 6954,
      "donated": 6955,
      "allies": 6956,
      "venture": 6957,
      "principle": 6958,
      "delivery": 6959,
      "enterprise": 6960,
      "##ves": 6961,
      "##ans": 6962,
      "bars": 6963,
      "traditionally": 6964,
      "witch": 6965,
      "reminded": 6966,
      "copper": 6967,
      "##uk": 6968,
      "pete": 6969,
      "inter": 6970,
      "links": 6971,
      "colin": 6972,
      "grinned": 6973,
      "elsewhere": 6974,
      "competitive": 6975,
      "frequent": 6976,
      "##oy": 6977,
      "scream": 6978,
      "##hu": 6979,
      "tension": 6980,
      "texts": 6981,
      "submarine": 6982,
      "finnish": 6983,
      "defending": 6984,
      "defend": 6985,
      "pat": 6986,
      "detail": 6987,
      "1884": 6988,
      "affiliated": 6989,
      "stuart": 6990,
      "themes": 6991,
      "villa": 6992,
      "periods": 6993,
      "tool": 6994,
      "belgian": 6995,
      "ruling": 6996,
      "crimes": 6997,
      "answers": 6998,
      "folded": 6999,
      "licensed": 7000,
      "resort": 7001,
      "demolished": 7002,
      "hans": 7003,
      "lucy": 7004,
      "1881": 7005,
      "lion": 7006,
      "traded": 7007,
      "photographs": 7008,
      "writes": 7009,
      "craig": 7010,
      "##fa": 7011,
      "trials": 7012,
      "generated": 7013,
      "beth": 7014,
      "noble": 7015,
      "debt": 7016,
      "percentage": 7017,
      "yorkshire": 7018,
      "erected": 7019,
      "ss": 7020,
      "viewed": 7021,
      "grades": 7022,
      "confidence": 7023,
      "ceased": 7024,
      "islam": 7025,
      "telephone": 7026,
      "retail": 7027,
      "##ible": 7028,
      "chile": 7029,
      "m²": 7030,
      "roberts": 7031,
      "sixteen": 7032,
      "##ich": 7033,
      "commented": 7034,
      "hampshire": 7035,
      "innocent": 7036,
      "dual": 7037,
      "pounds": 7038,
      "checked": 7039,
      "regulations": 7040,
      "afghanistan": 7041,
      "sung": 7042,
      "rico": 7043,
      "liberty": 7044,
      "assets": 7045,
      "bigger": 7046,
      "options": 7047,
      "angels": 7048,
      "relegated": 7049,
      "tribute": 7050,
      "wells": 7051,
      "attending": 7052,
      "leaf": 7053,
      "##yan": 7054,
      "butler": 7055,
      "romanian": 7056,
      "forum": 7057,
      "monthly": 7058,
      "lisa": 7059,
      "patterns": 7060,
      "gmina": 7061,
      "##tory": 7062,
      "madison": 7063,
      "hurricane": 7064,
      "rev": 7065,
      "##ians": 7066,
      "bristol": 7067,
      "##ula": 7068,
      "elite": 7069,
      "valuable": 7070,
      "disaster": 7071,
      "democracy": 7072,
      "awareness": 7073,
      "germans": 7074,
      "freyja": 7075,
      "##ins": 7076,
      "loop": 7077,
      "absolutely": 7078,
      "paying": 7079,
      "populations": 7080,
      "maine": 7081,
      "sole": 7082,
      "prayer": 7083,
      "spencer": 7084,
      "releases": 7085,
      "doorway": 7086,
      "bull": 7087,
      "##ani": 7088,
      "lover": 7089,
      "midnight": 7090,
      "conclusion": 7091,
      "##sson": 7092,
      "thirteen": 7093,
      "lily": 7094,
      "mediterranean": 7095,
      "##lt": 7096,
      "nhl": 7097,
      "proud": 7098,
      "sample": 7099,
      "##hill": 7100,
      "drummer": 7101,
      "guinea": 7102,
      "##ova": 7103,
      "murphy": 7104,
      "climb": 7105,
      "##ston": 7106,
      "instant": 7107,
      "attributed": 7108,
      "horn": 7109,
      "ain": 7110,
      "railways": 7111,
      "steven": 7112,
      "##ao": 7113,
      "autumn": 7114,
      "ferry": 7115,
      "opponent": 7116,
      "root": 7117,
      "traveling": 7118,
      "secured": 7119,
      "corridor": 7120,
      "stretched": 7121,
      "tales": 7122,
      "sheet": 7123,
      "trinity": 7124,
      "cattle": 7125,
      "helps": 7126,
      "indicates": 7127,
      "manhattan": 7128,
      "murdered": 7129,
      "fitted": 7130,
      "1882": 7131,
      "gentle": 7132,
      "grandmother": 7133,
      "mines": 7134,
      "shocked": 7135,
      "vegas": 7136,
      "produces": 7137,
      "##light": 7138,
      "caribbean": 7139,
      "##ou": 7140,
      "belong": 7141,
      "continuous": 7142,
      "desperate": 7143,
      "drunk": 7144,
      "historically": 7145,
      "trio": 7146,
      "waved": 7147,
      "raf": 7148,
      "dealing": 7149,
      "nathan": 7150,
      "bat": 7151,
      "murmured": 7152,
      "interrupted": 7153,
      "residing": 7154,
      "scientist": 7155,
      "pioneer": 7156,
      "harold": 7157,
      "aaron": 7158,
      "##net": 7159,
      "delta": 7160,
      "attempting": 7161,
      "minority": 7162,
      "mini": 7163,
      "believes": 7164,
      "chorus": 7165,
      "tend": 7166,
      "lots": 7167,
      "eyed": 7168,
      "indoor": 7169,
      "load": 7170,
      "shots": 7171,
      "updated": 7172,
      "jail": 7173,
      "##llo": 7174,
      "concerning": 7175,
      "connecting": 7176,
      "wealth": 7177,
      "##ved": 7178,
      "slaves": 7179,
      "arrive": 7180,
      "rangers": 7181,
      "sufficient": 7182,
      "rebuilt": 7183,
      "##wick": 7184,
      "cardinal": 7185,
      "flood": 7186,
      "muhammad": 7187,
      "whenever": 7188,
      "relation": 7189,
      "runners": 7190,
      "moral": 7191,
      "repair": 7192,
      "viewers": 7193,
      "arriving": 7194,
      "revenge": 7195,
      "punk": 7196,
      "assisted": 7197,
      "bath": 7198,
      "fairly": 7199,
      "breathe": 7200,
      "lists": 7201,
      "innings": 7202,
      "illustrated": 7203,
      "whisper": 7204,
      "nearest": 7205,
      "voters": 7206,
      "clinton": 7207,
      "ties": 7208,
      "ultimate": 7209,
      "screamed": 7210,
      "beijing": 7211,
      "lions": 7212,
      "andre": 7213,
      "fictional": 7214,
      "gathering": 7215,
      "comfort": 7216,
      "radar": 7217,
      "suitable": 7218,
      "dismissed": 7219,
      "hms": 7220,
      "ban": 7221,
      "pine": 7222,
      "wrist": 7223,
      "atmosphere": 7224,
      "voivodeship": 7225,
      "bid": 7226,
      "timber": 7227,
      "##ned": 7228,
      "##nan": 7229,
      "giants": 7230,
      "##ane": 7231,
      "cameron": 7232,
      "recovery": 7233,
      "uss": 7234,
      "identical": 7235,
      "categories": 7236,
      "switched": 7237,
      "serbia": 7238,
      "laughter": 7239,
      "noah": 7240,
      "ensemble": 7241,
      "therapy": 7242,
      "peoples": 7243,
      "touching": 7244,
      "##off": 7245,
      "locally": 7246,
      "pearl": 7247,
      "platforms": 7248,
      "everywhere": 7249,
      "ballet": 7250,
      "tables": 7251,
      "lanka": 7252,
      "herbert": 7253,
      "outdoor": 7254,
      "toured": 7255,
      "derek": 7256,
      "1883": 7257,
      "spaces": 7258,
      "contested": 7259,
      "swept": 7260,
      "1878": 7261,
      "exclusive": 7262,
      "slight": 7263,
      "connections": 7264,
      "##dra": 7265,
      "winds": 7266,
      "prisoner": 7267,
      "collective": 7268,
      "bangladesh": 7269,
      "tube": 7270,
      "publicly": 7271,
      "wealthy": 7272,
      "thai": 7273,
      "##ys": 7274,
      "isolated": 7275,
      "select": 7276,
      "##ric": 7277,
      "insisted": 7278,
      "pen": 7279,
      "fortune": 7280,
      "ticket": 7281,
      "spotted": 7282,
      "reportedly": 7283,
      "animation": 7284,
      "enforcement": 7285,
      "tanks": 7286,
      "110": 7287,
      "decides": 7288,
      "wider": 7289,
      "lowest": 7290,
      "owen": 7291,
      "##time": 7292,
      "nod": 7293,
      "hitting": 7294,
      "##hn": 7295,
      "gregory": 7296,
      "furthermore": 7297,
      "magazines": 7298,
      "fighters": 7299,
      "solutions": 7300,
      "##ery": 7301,
      "pointing": 7302,
      "requested": 7303,
      "peru": 7304,
      "reed": 7305,
      "chancellor": 7306,
      "knights": 7307,
      "mask": 7308,
      "worker": 7309,
      "eldest": 7310,
      "flames": 7311,
      "reduction": 7312,
      "1860": 7313,
      "volunteers": 7314,
      "##tis": 7315,
      "reporting": 7316,
      "##hl": 7317,
      "wire": 7318,
      "advisory": 7319,
      "endemic": 7320,
      "origins": 7321,
      "settlers": 7322,
      "pursue": 7323,
      "knock": 7324,
      "consumer": 7325,
      "1876": 7326,
      "eu": 7327,
      "compound": 7328,
      "creatures": 7329,
      "mansion": 7330,
      "sentenced": 7331,
      "ivan": 7332,
      "deployed": 7333,
      "guitars": 7334,
      "frowned": 7335,
      "involves": 7336,
      "mechanism": 7337,
      "kilometers": 7338,
      "perspective": 7339,
      "shops": 7340,
      "maps": 7341,
      "terminus": 7342,
      "duncan": 7343,
      "alien": 7344,
      "fist": 7345,
      "bridges": 7346,
      "##pers": 7347,
      "heroes": 7348,
      "fed": 7349,
      "derby": 7350,
      "swallowed": 7351,
      "##ros": 7352,
      "patent": 7353,
      "sara": 7354,
      "illness": 7355,
      "characterized": 7356,
      "adventures": 7357,
      "slide": 7358,
      "hawaii": 7359,
      "jurisdiction": 7360,
      "##op": 7361,
      "organised": 7362,
      "##side": 7363,
      "adelaide": 7364,
      "walks": 7365,
      "biology": 7366,
      "se": 7367,
      "##ties": 7368,
      "rogers": 7369,
      "swing": 7370,
      "tightly": 7371,
      "boundaries": 7372,
      "##rie": 7373,
      "prepare": 7374,
      "implementation": 7375,
      "stolen": 7376,
      "##sha": 7377,
      "certified": 7378,
      "colombia": 7379,
      "edwards": 7380,
      "garage": 7381,
      "##mm": 7382,
      "recalled": 7383,
      "##ball": 7384,
      "rage": 7385,
      "harm": 7386,
      "nigeria": 7387,
      "breast": 7388,
      "##ren": 7389,
      "furniture": 7390,
      "pupils": 7391,
      "settle": 7392,
      "##lus": 7393,
      "cuba": 7394,
      "balls": 7395,
      "client": 7396,
      "alaska": 7397,
      "21st": 7398,
      "linear": 7399,
      "thrust": 7400,
      "celebration": 7401,
      "latino": 7402,
      "genetic": 7403,
      "terror": 7404,
      "##cia": 7405,
      "##ening": 7406,
      "lightning": 7407,
      "fee": 7408,
      "witness": 7409,
      "lodge": 7410,
      "establishing": 7411,
      "skull": 7412,
      "##ique": 7413,
      "earning": 7414,
      "hood": 7415,
      "##ei": 7416,
      "rebellion": 7417,
      "wang": 7418,
      "sporting": 7419,
      "warned": 7420,
      "missile": 7421,
      "devoted": 7422,
      "activist": 7423,
      "porch": 7424,
      "worship": 7425,
      "fourteen": 7426,
      "package": 7427,
      "1871": 7428,
      "decorated": 7429,
      "##shire": 7430,
      "housed": 7431,
      "##ock": 7432,
      "chess": 7433,
      "sailed": 7434,
      "doctors": 7435,
      "oscar": 7436,
      "joan": 7437,
      "treat": 7438,
      "garcia": 7439,
      "harbour": 7440,
      "jeremy": 7441,
      "##ire": 7442,
      "traditions": 7443,
      "dominant": 7444,
      "jacques": 7445,
      "##gon": 7446,
      "##wan": 7447,
      "relocated": 7448,
      "1879": 7449,
      "amendment": 7450,
      "sized": 7451,
      "companion": 7452,
      "simultaneously": 7453,
      "volleyball": 7454,
      "spun": 7455,
      "acre": 7456,
      "increases": 7457,
      "stopping": 7458,
      "loves": 7459,
      "belongs": 7460,
      "affect": 7461,
      "drafted": 7462,
      "tossed": 7463,
      "scout": 7464,
      "battles": 7465,
      "1875": 7466,
      "filming": 7467,
      "shoved": 7468,
      "munich": 7469,
      "tenure": 7470,
      "vertical": 7471,
      "romance": 7472,
      "pc": 7473,
      "##cher": 7474,
      "argue": 7475,
      "##ical": 7476,
      "craft": 7477,
      "ranging": 7478,
      "www": 7479,
      "opens": 7480,
      "honest": 7481,
      "tyler": 7482,
      "yesterday": 7483,
      "virtual": 7484,
      "##let": 7485,
      "muslims": 7486,
      "reveal": 7487,
      "snake": 7488,
      "immigrants": 7489,
      "radical": 7490,
      "screaming": 7491,
      "speakers": 7492,
      "firing": 7493,
      "saving": 7494,
      "belonging": 7495,
      "ease": 7496,
      "lighting": 7497,
      "prefecture": 7498,
      "blame": 7499,
      "farmer": 7500,
      "hungry": 7501,
      "grows": 7502,
      "rubbed": 7503,
      "beam": 7504,
      "sur": 7505,
      "subsidiary": 7506,
      "##cha": 7507,
      "armenian": 7508,
      "sao": 7509,
      "dropping": 7510,
      "conventional": 7511,
      "##fer": 7512,
      "microsoft": 7513,
      "reply": 7514,
      "qualify": 7515,
      "spots": 7516,
      "1867": 7517,
      "sweat": 7518,
      "festivals": 7519,
      "##ken": 7520,
      "immigration": 7521,
      "physician": 7522,
      "discover": 7523,
      "exposure": 7524,
      "sandy": 7525,
      "explanation": 7526,
      "isaac": 7527,
      "implemented": 7528,
      "##fish": 7529,
      "hart": 7530,
      "initiated": 7531,
      "connect": 7532,
      "stakes": 7533,
      "presents": 7534,
      "heights": 7535,
      "householder": 7536,
      "pleased": 7537,
      "tourist": 7538,
      "regardless": 7539,
      "slip": 7540,
      "closest": 7541,
      "##ction": 7542,
      "surely": 7543,
      "sultan": 7544,
      "brings": 7545,
      "riley": 7546,
      "preparation": 7547,
      "aboard": 7548,
      "slammed": 7549,
      "baptist": 7550,
      "experiment": 7551,
      "ongoing": 7552,
      "interstate": 7553,
      "organic": 7554,
      "playoffs": 7555,
      "##ika": 7556,
      "1877": 7557,
      "130": 7558,
      "##tar": 7559,
      "hindu": 7560,
      "error": 7561,
      "tours": 7562,
      "tier": 7563,
      "plenty": 7564,
      "arrangements": 7565,
      "talks": 7566,
      "trapped": 7567,
      "excited": 7568,
      "sank": 7569,
      "ho": 7570,
      "athens": 7571,
      "1872": 7572,
      "denver": 7573,
      "welfare": 7574,
      "suburb": 7575,
      "athletes": 7576,
      "trick": 7577,
      "diverse": 7578,
      "belly": 7579,
      "exclusively": 7580,
      "yelled": 7581,
      "1868": 7582,
      "##med": 7583,
      "conversion": 7584,
      "##ette": 7585,
      "1874": 7586,
      "internationally": 7587,
      "computers": 7588,
      "conductor": 7589,
      "abilities": 7590,
      "sensitive": 7591,
      "hello": 7592,
      "dispute": 7593,
      "measured": 7594,
      "globe": 7595,
      "rocket": 7596,
      "prices": 7597,
      "amsterdam": 7598,
      "flights": 7599,
      "tigers": 7600,
      "inn": 7601,
      "municipalities": 7602,
      "emotion": 7603,
      "references": 7604,
      "3d": 7605,
      "##mus": 7606,
      "explains": 7607,
      "airlines": 7608,
      "manufactured": 7609,
      "pm": 7610,
      "archaeological": 7611,
      "1873": 7612,
      "interpretation": 7613,
      "devon": 7614,
      "comment": 7615,
      "##ites": 7616,
      "settlements": 7617,
      "kissing": 7618,
      "absolute": 7619,
      "improvement": 7620,
      "suite": 7621,
      "impressed": 7622,
      "barcelona": 7623,
      "sullivan": 7624,
      "jefferson": 7625,
      "towers": 7626,
      "jesse": 7627,
      "julie": 7628,
      "##tin": 7629,
      "##lu": 7630,
      "grandson": 7631,
      "hi": 7632,
      "gauge": 7633,
      "regard": 7634,
      "rings": 7635,
      "interviews": 7636,
      "trace": 7637,
      "raymond": 7638,
      "thumb": 7639,
      "departments": 7640,
      "burns": 7641,
      "serial": 7642,
      "bulgarian": 7643,
      "scores": 7644,
      "demonstrated": 7645,
      "##ix": 7646,
      "1866": 7647,
      "kyle": 7648,
      "alberta": 7649,
      "underneath": 7650,
      "romanized": 7651,
      "##ward": 7652,
      "relieved": 7653,
      "acquisition": 7654,
      "phrase": 7655,
      "cliff": 7656,
      "reveals": 7657,
      "han": 7658,
      "cuts": 7659,
      "merger": 7660,
      "custom": 7661,
      "##dar": 7662,
      "nee": 7663,
      "gilbert": 7664,
      "graduation": 7665,
      "##nts": 7666,
      "assessment": 7667,
      "cafe": 7668,
      "difficulty": 7669,
      "demands": 7670,
      "swung": 7671,
      "democrat": 7672,
      "jennifer": 7673,
      "commons": 7674,
      "1940s": 7675,
      "grove": 7676,
      "##yo": 7677,
      "completing": 7678,
      "focuses": 7679,
      "sum": 7680,
      "substitute": 7681,
      "bearing": 7682,
      "stretch": 7683,
      "reception": 7684,
      "##py": 7685,
      "reflected": 7686,
      "essentially": 7687,
      "destination": 7688,
      "pairs": 7689,
      "##ched": 7690,
      "survival": 7691,
      "resource": 7692,
      "##bach": 7693,
      "promoting": 7694,
      "doubles": 7695,
      "messages": 7696,
      "tear": 7697,
      "##down": 7698,
      "##fully": 7699,
      "parade": 7700,
      "florence": 7701,
      "harvey": 7702,
      "incumbent": 7703,
      "partial": 7704,
      "framework": 7705,
      "900": 7706,
      "pedro": 7707,
      "frozen": 7708,
      "procedure": 7709,
      "olivia": 7710,
      "controls": 7711,
      "##mic": 7712,
      "shelter": 7713,
      "personally": 7714,
      "temperatures": 7715,
      "##od": 7716,
      "brisbane": 7717,
      "tested": 7718,
      "sits": 7719,
      "marble": 7720,
      "comprehensive": 7721,
      "oxygen": 7722,
      "leonard": 7723,
      "##kov": 7724,
      "inaugural": 7725,
      "iranian": 7726,
      "referring": 7727,
      "quarters": 7728,
      "attitude": 7729,
      "##ivity": 7730,
      "mainstream": 7731,
      "lined": 7732,
      "mars": 7733,
      "dakota": 7734,
      "norfolk": 7735,
      "unsuccessful": 7736,
      "##°": 7737,
      "explosion": 7738,
      "helicopter": 7739,
      "congressional": 7740,
      "##sing": 7741,
      "inspector": 7742,
      "bitch": 7743,
      "seal": 7744,
      "departed": 7745,
      "divine": 7746,
      "##ters": 7747,
      "coaching": 7748,
      "examination": 7749,
      "punishment": 7750,
      "manufacturer": 7751,
      "sink": 7752,
      "columns": 7753,
      "unincorporated": 7754,
      "signals": 7755,
      "nevada": 7756,
      "squeezed": 7757,
      "dylan": 7758,
      "dining": 7759,
      "photos": 7760,
      "martial": 7761,
      "manuel": 7762,
      "eighteen": 7763,
      "elevator": 7764,
      "brushed": 7765,
      "plates": 7766,
      "ministers": 7767,
      "ivy": 7768,
      "congregation": 7769,
      "##len": 7770,
      "slept": 7771,
      "specialized": 7772,
      "taxes": 7773,
      "curve": 7774,
      "restricted": 7775,
      "negotiations": 7776,
      "likes": 7777,
      "statistical": 7778,
      "arnold": 7779,
      "inspiration": 7780,
      "execution": 7781,
      "bold": 7782,
      "intermediate": 7783,
      "significance": 7784,
      "margin": 7785,
      "ruler": 7786,
      "wheels": 7787,
      "gothic": 7788,
      "intellectual": 7789,
      "dependent": 7790,
      "listened": 7791,
      "eligible": 7792,
      "buses": 7793,
      "widow": 7794,
      "syria": 7795,
      "earn": 7796,
      "cincinnati": 7797,
      "collapsed": 7798,
      "recipient": 7799,
      "secrets": 7800,
      "accessible": 7801,
      "philippine": 7802,
      "maritime": 7803,
      "goddess": 7804,
      "clerk": 7805,
      "surrender": 7806,
      "breaks": 7807,
      "playoff": 7808,
      "database": 7809,
      "##ified": 7810,
      "##lon": 7811,
      "ideal": 7812,
      "beetle": 7813,
      "aspect": 7814,
      "soap": 7815,
      "regulation": 7816,
      "strings": 7817,
      "expand": 7818,
      "anglo": 7819,
      "shorter": 7820,
      "crosses": 7821,
      "retreat": 7822,
      "tough": 7823,
      "coins": 7824,
      "wallace": 7825,
      "directions": 7826,
      "pressing": 7827,
      "##oon": 7828,
      "shipping": 7829,
      "locomotives": 7830,
      "comparison": 7831,
      "topics": 7832,
      "nephew": 7833,
      "##mes": 7834,
      "distinction": 7835,
      "honors": 7836,
      "travelled": 7837,
      "sierra": 7838,
      "ibn": 7839,
      "##over": 7840,
      "fortress": 7841,
      "sa": 7842,
      "recognised": 7843,
      "carved": 7844,
      "1869": 7845,
      "clients": 7846,
      "##dan": 7847,
      "intent": 7848,
      "##mar": 7849,
      "coaches": 7850,
      "describing": 7851,
      "bread": 7852,
      "##ington": 7853,
      "beaten": 7854,
      "northwestern": 7855,
      "##ona": 7856,
      "merit": 7857,
      "youtube": 7858,
      "collapse": 7859,
      "challenges": 7860,
      "em": 7861,
      "historians": 7862,
      "objective": 7863,
      "submitted": 7864,
      "virus": 7865,
      "attacking": 7866,
      "drake": 7867,
      "assume": 7868,
      "##ere": 7869,
      "diseases": 7870,
      "marc": 7871,
      "stem": 7872,
      "leeds": 7873,
      "##cus": 7874,
      "##ab": 7875,
      "farming": 7876,
      "glasses": 7877,
      "##lock": 7878,
      "visits": 7879,
      "nowhere": 7880,
      "fellowship": 7881,
      "relevant": 7882,
      "carries": 7883,
      "restaurants": 7884,
      "experiments": 7885,
      "101": 7886,
      "constantly": 7887,
      "bases": 7888,
      "targets": 7889,
      "shah": 7890,
      "tenth": 7891,
      "opponents": 7892,
      "verse": 7893,
      "territorial": 7894,
      "##ira": 7895,
      "writings": 7896,
      "corruption": 7897,
      "##hs": 7898,
      "instruction": 7899,
      "inherited": 7900,
      "reverse": 7901,
      "emphasis": 7902,
      "##vic": 7903,
      "employee": 7904,
      "arch": 7905,
      "keeps": 7906,
      "rabbi": 7907,
      "watson": 7908,
      "payment": 7909,
      "uh": 7910,
      "##ala": 7911,
      "nancy": 7912,
      "##tre": 7913,
      "venice": 7914,
      "fastest": 7915,
      "sexy": 7916,
      "banned": 7917,
      "adrian": 7918,
      "properly": 7919,
      "ruth": 7920,
      "touchdown": 7921,
      "dollar": 7922,
      "boards": 7923,
      "metre": 7924,
      "circles": 7925,
      "edges": 7926,
      "favour": 7927,
      "comments": 7928,
      "ok": 7929,
      "travels": 7930,
      "liberation": 7931,
      "scattered": 7932,
      "firmly": 7933,
      "##ular": 7934,
      "holland": 7935,
      "permitted": 7936,
      "diesel": 7937,
      "kenya": 7938,
      "den": 7939,
      "originated": 7940,
      "##ral": 7941,
      "demons": 7942,
      "resumed": 7943,
      "dragged": 7944,
      "rider": 7945,
      "##rus": 7946,
      "servant": 7947,
      "blinked": 7948,
      "extend": 7949,
      "torn": 7950,
      "##ias": 7951,
      "##sey": 7952,
      "input": 7953,
      "meal": 7954,
      "everybody": 7955,
      "cylinder": 7956,
      "kinds": 7957,
      "camps": 7958,
      "##fe": 7959,
      "bullet": 7960,
      "logic": 7961,
      "##wn": 7962,
      "croatian": 7963,
      "evolved": 7964,
      "healthy": 7965,
      "fool": 7966,
      "chocolate": 7967,
      "wise": 7968,
      "preserve": 7969,
      "pradesh": 7970,
      "##ess": 7971,
      "respective": 7972,
      "1850": 7973,
      "##ew": 7974,
      "chicken": 7975,
      "artificial": 7976,
      "gross": 7977,
      "corresponding": 7978,
      "convicted": 7979,
      "cage": 7980,
      "caroline": 7981,
      "dialogue": 7982,
      "##dor": 7983,
      "narrative": 7984,
      "stranger": 7985,
      "mario": 7986,
      "br": 7987,
      "christianity": 7988,
      "failing": 7989,
      "trent": 7990,
      "commanding": 7991,
      "buddhist": 7992,
      "1848": 7993,
      "maurice": 7994,
      "focusing": 7995,
      "yale": 7996,
      "bike": 7997,
      "altitude": 7998,
      "##ering": 7999,
      "mouse": 8000,
      "revised": 8001,
      "##sley": 8002,
      "veteran": 8003,
      "##ig": 8004,
      "pulls": 8005,
      "theology": 8006,
      "crashed": 8007,
      "campaigns": 8008,
      "legion": 8009,
      "##ability": 8010,
      "drag": 8011,
      "excellence": 8012,
      "customer": 8013,
      "cancelled": 8014,
      "intensity": 8015,
      "excuse": 8016,
      "##lar": 8017,
      "liga": 8018,
      "participating": 8019,
      "contributing": 8020,
      "printing": 8021,
      "##burn": 8022,
      "variable": 8023,
      "##rk": 8024,
      "curious": 8025,
      "bin": 8026,
      "legacy": 8027,
      "renaissance": 8028,
      "##my": 8029,
      "symptoms": 8030,
      "binding": 8031,
      "vocalist": 8032,
      "dancer": 8033,
      "##nie": 8034,
      "grammar": 8035,
      "gospel": 8036,
      "democrats": 8037,
      "ya": 8038,
      "enters": 8039,
      "sc": 8040,
      "diplomatic": 8041,
      "hitler": 8042,
      "##ser": 8043,
      "clouds": 8044,
      "mathematical": 8045,
      "quit": 8046,
      "defended": 8047,
      "oriented": 8048,
      "##heim": 8049,
      "fundamental": 8050,
      "hardware": 8051,
      "impressive": 8052,
      "equally": 8053,
      "convince": 8054,
      "confederate": 8055,
      "guilt": 8056,
      "chuck": 8057,
      "sliding": 8058,
      "##ware": 8059,
      "magnetic": 8060,
      "narrowed": 8061,
      "petersburg": 8062,
      "bulgaria": 8063,
      "otto": 8064,
      "phd": 8065,
      "skill": 8066,
      "##ama": 8067,
      "reader": 8068,
      "hopes": 8069,
      "pitcher": 8070,
      "reservoir": 8071,
      "hearts": 8072,
      "automatically": 8073,
      "expecting": 8074,
      "mysterious": 8075,
      "bennett": 8076,
      "extensively": 8077,
      "imagined": 8078,
      "seeds": 8079,
      "monitor": 8080,
      "fix": 8081,
      "##ative": 8082,
      "journalism": 8083,
      "struggling": 8084,
      "signature": 8085,
      "ranch": 8086,
      "encounter": 8087,
      "photographer": 8088,
      "observation": 8089,
      "protests": 8090,
      "##pin": 8091,
      "influences": 8092,
      "##hr": 8093,
      "calendar": 8094,
      "##all": 8095,
      "cruz": 8096,
      "croatia": 8097,
      "locomotive": 8098,
      "hughes": 8099,
      "naturally": 8100,
      "shakespeare": 8101,
      "basement": 8102,
      "hook": 8103,
      "uncredited": 8104,
      "faded": 8105,
      "theories": 8106,
      "approaches": 8107,
      "dare": 8108,
      "phillips": 8109,
      "filling": 8110,
      "fury": 8111,
      "obama": 8112,
      "##ain": 8113,
      "efficient": 8114,
      "arc": 8115,
      "deliver": 8116,
      "min": 8117,
      "raid": 8118,
      "breeding": 8119,
      "inducted": 8120,
      "leagues": 8121,
      "efficiency": 8122,
      "axis": 8123,
      "montana": 8124,
      "eagles": 8125,
      "##ked": 8126,
      "supplied": 8127,
      "instructions": 8128,
      "karen": 8129,
      "picking": 8130,
      "indicating": 8131,
      "trap": 8132,
      "anchor": 8133,
      "practically": 8134,
      "christians": 8135,
      "tomb": 8136,
      "vary": 8137,
      "occasional": 8138,
      "electronics": 8139,
      "lords": 8140,
      "readers": 8141,
      "newcastle": 8142,
      "faint": 8143,
      "innovation": 8144,
      "collect": 8145,
      "situations": 8146,
      "engagement": 8147,
      "160": 8148,
      "claude": 8149,
      "mixture": 8150,
      "##feld": 8151,
      "peer": 8152,
      "tissue": 8153,
      "logo": 8154,
      "lean": 8155,
      "##ration": 8156,
      "°f": 8157,
      "floors": 8158,
      "##ven": 8159,
      "architects": 8160,
      "reducing": 8161,
      "##our": 8162,
      "##ments": 8163,
      "rope": 8164,
      "1859": 8165,
      "ottawa": 8166,
      "##har": 8167,
      "samples": 8168,
      "banking": 8169,
      "declaration": 8170,
      "proteins": 8171,
      "resignation": 8172,
      "francois": 8173,
      "saudi": 8174,
      "advocate": 8175,
      "exhibited": 8176,
      "armor": 8177,
      "twins": 8178,
      "divorce": 8179,
      "##ras": 8180,
      "abraham": 8181,
      "reviewed": 8182,
      "jo": 8183,
      "temporarily": 8184,
      "matrix": 8185,
      "physically": 8186,
      "pulse": 8187,
      "curled": 8188,
      "##ena": 8189,
      "difficulties": 8190,
      "bengal": 8191,
      "usage": 8192,
      "##ban": 8193,
      "annie": 8194,
      "riders": 8195,
      "certificate": 8196,
      "##pi": 8197,
      "holes": 8198,
      "warsaw": 8199,
      "distinctive": 8200,
      "jessica": 8201,
      "##mon": 8202,
      "mutual": 8203,
      "1857": 8204,
      "customs": 8205,
      "circular": 8206,
      "eugene": 8207,
      "removal": 8208,
      "loaded": 8209,
      "mere": 8210,
      "vulnerable": 8211,
      "depicted": 8212,
      "generations": 8213,
      "dame": 8214,
      "heir": 8215,
      "enormous": 8216,
      "lightly": 8217,
      "climbing": 8218,
      "pitched": 8219,
      "lessons": 8220,
      "pilots": 8221,
      "nepal": 8222,
      "ram": 8223,
      "google": 8224,
      "preparing": 8225,
      "brad": 8226,
      "louise": 8227,
      "renowned": 8228,
      "##₂": 8229,
      "liam": 8230,
      "##ably": 8231,
      "plaza": 8232,
      "shaw": 8233,
      "sophie": 8234,
      "brilliant": 8235,
      "bills": 8236,
      "##bar": 8237,
      "##nik": 8238,
      "fucking": 8239,
      "mainland": 8240,
      "server": 8241,
      "pleasant": 8242,
      "seized": 8243,
      "veterans": 8244,
      "jerked": 8245,
      "fail": 8246,
      "beta": 8247,
      "brush": 8248,
      "radiation": 8249,
      "stored": 8250,
      "warmth": 8251,
      "southeastern": 8252,
      "nate": 8253,
      "sin": 8254,
      "raced": 8255,
      "berkeley": 8256,
      "joke": 8257,
      "athlete": 8258,
      "designation": 8259,
      "trunk": 8260,
      "##low": 8261,
      "roland": 8262,
      "qualification": 8263,
      "archives": 8264,
      "heels": 8265,
      "artwork": 8266,
      "receives": 8267,
      "judicial": 8268,
      "reserves": 8269,
      "##bed": 8270,
      "woke": 8271,
      "installation": 8272,
      "abu": 8273,
      "floating": 8274,
      "fake": 8275,
      "lesser": 8276,
      "excitement": 8277,
      "interface": 8278,
      "concentrated": 8279,
      "addressed": 8280,
      "characteristic": 8281,
      "amanda": 8282,
      "saxophone": 8283,
      "monk": 8284,
      "auto": 8285,
      "##bus": 8286,
      "releasing": 8287,
      "egg": 8288,
      "dies": 8289,
      "interaction": 8290,
      "defender": 8291,
      "ce": 8292,
      "outbreak": 8293,
      "glory": 8294,
      "loving": 8295,
      "##bert": 8296,
      "sequel": 8297,
      "consciousness": 8298,
      "http": 8299,
      "awake": 8300,
      "ski": 8301,
      "enrolled": 8302,
      "##ress": 8303,
      "handling": 8304,
      "rookie": 8305,
      "brow": 8306,
      "somebody": 8307,
      "biography": 8308,
      "warfare": 8309,
      "amounts": 8310,
      "contracts": 8311,
      "presentation": 8312,
      "fabric": 8313,
      "dissolved": 8314,
      "challenged": 8315,
      "meter": 8316,
      "psychological": 8317,
      "lt": 8318,
      "elevated": 8319,
      "rally": 8320,
      "accurate": 8321,
      "##tha": 8322,
      "hospitals": 8323,
      "undergraduate": 8324,
      "specialist": 8325,
      "venezuela": 8326,
      "exhibit": 8327,
      "shed": 8328,
      "nursing": 8329,
      "protestant": 8330,
      "fluid": 8331,
      "structural": 8332,
      "footage": 8333,
      "jared": 8334,
      "consistent": 8335,
      "prey": 8336,
      "##ska": 8337,
      "succession": 8338,
      "reflect": 8339,
      "exile": 8340,
      "lebanon": 8341,
      "wiped": 8342,
      "suspect": 8343,
      "shanghai": 8344,
      "resting": 8345,
      "integration": 8346,
      "preservation": 8347,
      "marvel": 8348,
      "variant": 8349,
      "pirates": 8350,
      "sheep": 8351,
      "rounded": 8352,
      "capita": 8353,
      "sailing": 8354,
      "colonies": 8355,
      "manuscript": 8356,
      "deemed": 8357,
      "variations": 8358,
      "clarke": 8359,
      "functional": 8360,
      "emerging": 8361,
      "boxing": 8362,
      "relaxed": 8363,
      "curse": 8364,
      "azerbaijan": 8365,
      "heavyweight": 8366,
      "nickname": 8367,
      "editorial": 8368,
      "rang": 8369,
      "grid": 8370,
      "tightened": 8371,
      "earthquake": 8372,
      "flashed": 8373,
      "miguel": 8374,
      "rushing": 8375,
      "##ches": 8376,
      "improvements": 8377,
      "boxes": 8378,
      "brooks": 8379,
      "180": 8380,
      "consumption": 8381,
      "molecular": 8382,
      "felix": 8383,
      "societies": 8384,
      "repeatedly": 8385,
      "variation": 8386,
      "aids": 8387,
      "civic": 8388,
      "graphics": 8389,
      "professionals": 8390,
      "realm": 8391,
      "autonomous": 8392,
      "receiver": 8393,
      "delayed": 8394,
      "workshop": 8395,
      "militia": 8396,
      "chairs": 8397,
      "trump": 8398,
      "canyon": 8399,
      "##point": 8400,
      "harsh": 8401,
      "extending": 8402,
      "lovely": 8403,
      "happiness": 8404,
      "##jan": 8405,
      "stake": 8406,
      "eyebrows": 8407,
      "embassy": 8408,
      "wellington": 8409,
      "hannah": 8410,
      "##ella": 8411,
      "sony": 8412,
      "corners": 8413,
      "bishops": 8414,
      "swear": 8415,
      "cloth": 8416,
      "contents": 8417,
      "xi": 8418,
      "namely": 8419,
      "commenced": 8420,
      "1854": 8421,
      "stanford": 8422,
      "nashville": 8423,
      "courage": 8424,
      "graphic": 8425,
      "commitment": 8426,
      "garrison": 8427,
      "##bin": 8428,
      "hamlet": 8429,
      "clearing": 8430,
      "rebels": 8431,
      "attraction": 8432,
      "literacy": 8433,
      "cooking": 8434,
      "ruins": 8435,
      "temples": 8436,
      "jenny": 8437,
      "humanity": 8438,
      "celebrate": 8439,
      "hasn": 8440,
      "freight": 8441,
      "sixty": 8442,
      "rebel": 8443,
      "bastard": 8444,
      "##art": 8445,
      "newton": 8446,
      "##ada": 8447,
      "deer": 8448,
      "##ges": 8449,
      "##ching": 8450,
      "smiles": 8451,
      "delaware": 8452,
      "singers": 8453,
      "##ets": 8454,
      "approaching": 8455,
      "assists": 8456,
      "flame": 8457,
      "##ph": 8458,
      "boulevard": 8459,
      "barrel": 8460,
      "planted": 8461,
      "##ome": 8462,
      "pursuit": 8463,
      "##sia": 8464,
      "consequences": 8465,
      "posts": 8466,
      "shallow": 8467,
      "invitation": 8468,
      "rode": 8469,
      "depot": 8470,
      "ernest": 8471,
      "kane": 8472,
      "rod": 8473,
      "concepts": 8474,
      "preston": 8475,
      "topic": 8476,
      "chambers": 8477,
      "striking": 8478,
      "blast": 8479,
      "arrives": 8480,
      "descendants": 8481,
      "montgomery": 8482,
      "ranges": 8483,
      "worlds": 8484,
      "##lay": 8485,
      "##ari": 8486,
      "span": 8487,
      "chaos": 8488,
      "praise": 8489,
      "##ag": 8490,
      "fewer": 8491,
      "1855": 8492,
      "sanctuary": 8493,
      "mud": 8494,
      "fbi": 8495,
      "##ions": 8496,
      "programmes": 8497,
      "maintaining": 8498,
      "unity": 8499,
      "harper": 8500,
      "bore": 8501,
      "handsome": 8502,
      "closure": 8503,
      "tournaments": 8504,
      "thunder": 8505,
      "nebraska": 8506,
      "linda": 8507,
      "facade": 8508,
      "puts": 8509,
      "satisfied": 8510,
      "argentine": 8511,
      "dale": 8512,
      "cork": 8513,
      "dome": 8514,
      "panama": 8515,
      "##yl": 8516,
      "1858": 8517,
      "tasks": 8518,
      "experts": 8519,
      "##ates": 8520,
      "feeding": 8521,
      "equation": 8522,
      "##las": 8523,
      "##ida": 8524,
      "##tu": 8525,
      "engage": 8526,
      "bryan": 8527,
      "##ax": 8528,
      "um": 8529,
      "quartet": 8530,
      "melody": 8531,
      "disbanded": 8532,
      "sheffield": 8533,
      "blocked": 8534,
      "gasped": 8535,
      "delay": 8536,
      "kisses": 8537,
      "maggie": 8538,
      "connects": 8539,
      "##non": 8540,
      "sts": 8541,
      "poured": 8542,
      "creator": 8543,
      "publishers": 8544,
      "##we": 8545,
      "guided": 8546,
      "ellis": 8547,
      "extinct": 8548,
      "hug": 8549,
      "gaining": 8550,
      "##ord": 8551,
      "complicated": 8552,
      "##bility": 8553,
      "poll": 8554,
      "clenched": 8555,
      "investigate": 8556,
      "##use": 8557,
      "thereby": 8558,
      "quantum": 8559,
      "spine": 8560,
      "cdp": 8561,
      "humor": 8562,
      "kills": 8563,
      "administered": 8564,
      "semifinals": 8565,
      "##du": 8566,
      "encountered": 8567,
      "ignore": 8568,
      "##bu": 8569,
      "commentary": 8570,
      "##maker": 8571,
      "bother": 8572,
      "roosevelt": 8573,
      "140": 8574,
      "plains": 8575,
      "halfway": 8576,
      "flowing": 8577,
      "cultures": 8578,
      "crack": 8579,
      "imprisoned": 8580,
      "neighboring": 8581,
      "airline": 8582,
      "##ses": 8583,
      "##view": 8584,
      "##mate": 8585,
      "##ec": 8586,
      "gather": 8587,
      "wolves": 8588,
      "marathon": 8589,
      "transformed": 8590,
      "##ill": 8591,
      "cruise": 8592,
      "organisations": 8593,
      "carol": 8594,
      "punch": 8595,
      "exhibitions": 8596,
      "numbered": 8597,
      "alarm": 8598,
      "ratings": 8599,
      "daddy": 8600,
      "silently": 8601,
      "##stein": 8602,
      "queens": 8603,
      "colours": 8604,
      "impression": 8605,
      "guidance": 8606,
      "liu": 8607,
      "tactical": 8608,
      "##rat": 8609,
      "marshal": 8610,
      "della": 8611,
      "arrow": 8612,
      "##ings": 8613,
      "rested": 8614,
      "feared": 8615,
      "tender": 8616,
      "owns": 8617,
      "bitter": 8618,
      "advisor": 8619,
      "escort": 8620,
      "##ides": 8621,
      "spare": 8622,
      "farms": 8623,
      "grants": 8624,
      "##ene": 8625,
      "dragons": 8626,
      "encourage": 8627,
      "colleagues": 8628,
      "cameras": 8629,
      "##und": 8630,
      "sucked": 8631,
      "pile": 8632,
      "spirits": 8633,
      "prague": 8634,
      "statements": 8635,
      "suspension": 8636,
      "landmark": 8637,
      "fence": 8638,
      "torture": 8639,
      "recreation": 8640,
      "bags": 8641,
      "permanently": 8642,
      "survivors": 8643,
      "pond": 8644,
      "spy": 8645,
      "predecessor": 8646,
      "bombing": 8647,
      "coup": 8648,
      "##og": 8649,
      "protecting": 8650,
      "transformation": 8651,
      "glow": 8652,
      "##lands": 8653,
      "##book": 8654,
      "dug": 8655,
      "priests": 8656,
      "andrea": 8657,
      "feat": 8658,
      "barn": 8659,
      "jumping": 8660,
      "##chen": 8661,
      "##ologist": 8662,
      "##con": 8663,
      "casualties": 8664,
      "stern": 8665,
      "auckland": 8666,
      "pipe": 8667,
      "serie": 8668,
      "revealing": 8669,
      "ba": 8670,
      "##bel": 8671,
      "trevor": 8672,
      "mercy": 8673,
      "spectrum": 8674,
      "yang": 8675,
      "consist": 8676,
      "governing": 8677,
      "collaborated": 8678,
      "possessed": 8679,
      "epic": 8680,
      "comprises": 8681,
      "blew": 8682,
      "shane": 8683,
      "##ack": 8684,
      "lopez": 8685,
      "honored": 8686,
      "magical": 8687,
      "sacrifice": 8688,
      "judgment": 8689,
      "perceived": 8690,
      "hammer": 8691,
      "mtv": 8692,
      "baronet": 8693,
      "tune": 8694,
      "das": 8695,
      "missionary": 8696,
      "sheets": 8697,
      "350": 8698,
      "neutral": 8699,
      "oral": 8700,
      "threatening": 8701,
      "attractive": 8702,
      "shade": 8703,
      "aims": 8704,
      "seminary": 8705,
      "##master": 8706,
      "estates": 8707,
      "1856": 8708,
      "michel": 8709,
      "wounds": 8710,
      "refugees": 8711,
      "manufacturers": 8712,
      "##nic": 8713,
      "mercury": 8714,
      "syndrome": 8715,
      "porter": 8716,
      "##iya": 8717,
      "##din": 8718,
      "hamburg": 8719,
      "identification": 8720,
      "upstairs": 8721,
      "purse": 8722,
      "widened": 8723,
      "pause": 8724,
      "cared": 8725,
      "breathed": 8726,
      "affiliate": 8727,
      "santiago": 8728,
      "prevented": 8729,
      "celtic": 8730,
      "fisher": 8731,
      "125": 8732,
      "recruited": 8733,
      "byzantine": 8734,
      "reconstruction": 8735,
      "farther": 8736,
      "##mp": 8737,
      "diet": 8738,
      "sake": 8739,
      "au": 8740,
      "spite": 8741,
      "sensation": 8742,
      "##ert": 8743,
      "blank": 8744,
      "separation": 8745,
      "105": 8746,
      "##hon": 8747,
      "vladimir": 8748,
      "armies": 8749,
      "anime": 8750,
      "##lie": 8751,
      "accommodate": 8752,
      "orbit": 8753,
      "cult": 8754,
      "sofia": 8755,
      "archive": 8756,
      "##ify": 8757,
      "##box": 8758,
      "founders": 8759,
      "sustained": 8760,
      "disorder": 8761,
      "honours": 8762,
      "northeastern": 8763,
      "mia": 8764,
      "crops": 8765,
      "violet": 8766,
      "threats": 8767,
      "blanket": 8768,
      "fires": 8769,
      "canton": 8770,
      "followers": 8771,
      "southwestern": 8772,
      "prototype": 8773,
      "voyage": 8774,
      "assignment": 8775,
      "altered": 8776,
      "moderate": 8777,
      "protocol": 8778,
      "pistol": 8779,
      "##eo": 8780,
      "questioned": 8781,
      "brass": 8782,
      "lifting": 8783,
      "1852": 8784,
      "math": 8785,
      "authored": 8786,
      "##ual": 8787,
      "doug": 8788,
      "dimensional": 8789,
      "dynamic": 8790,
      "##san": 8791,
      "1851": 8792,
      "pronounced": 8793,
      "grateful": 8794,
      "quest": 8795,
      "uncomfortable": 8796,
      "boom": 8797,
      "presidency": 8798,
      "stevens": 8799,
      "relating": 8800,
      "politicians": 8801,
      "chen": 8802,
      "barrier": 8803,
      "quinn": 8804,
      "diana": 8805,
      "mosque": 8806,
      "tribal": 8807,
      "cheese": 8808,
      "palmer": 8809,
      "portions": 8810,
      "sometime": 8811,
      "chester": 8812,
      "treasure": 8813,
      "wu": 8814,
      "bend": 8815,
      "download": 8816,
      "millions": 8817,
      "reforms": 8818,
      "registration": 8819,
      "##osa": 8820,
      "consequently": 8821,
      "monitoring": 8822,
      "ate": 8823,
      "preliminary": 8824,
      "brandon": 8825,
      "invented": 8826,
      "ps": 8827,
      "eaten": 8828,
      "exterior": 8829,
      "intervention": 8830,
      "ports": 8831,
      "documented": 8832,
      "log": 8833,
      "displays": 8834,
      "lecture": 8835,
      "sally": 8836,
      "favourite": 8837,
      "##itz": 8838,
      "vermont": 8839,
      "lo": 8840,
      "invisible": 8841,
      "isle": 8842,
      "breed": 8843,
      "##ator": 8844,
      "journalists": 8845,
      "relay": 8846,
      "speaks": 8847,
      "backward": 8848,
      "explore": 8849,
      "midfielder": 8850,
      "actively": 8851,
      "stefan": 8852,
      "procedures": 8853,
      "cannon": 8854,
      "blond": 8855,
      "kenneth": 8856,
      "centered": 8857,
      "servants": 8858,
      "chains": 8859,
      "libraries": 8860,
      "malcolm": 8861,
      "essex": 8862,
      "henri": 8863,
      "slavery": 8864,
      "##hal": 8865,
      "facts": 8866,
      "fairy": 8867,
      "coached": 8868,
      "cassie": 8869,
      "cats": 8870,
      "washed": 8871,
      "cop": 8872,
      "##fi": 8873,
      "announcement": 8874,
      "item": 8875,
      "2000s": 8876,
      "vinyl": 8877,
      "activated": 8878,
      "marco": 8879,
      "frontier": 8880,
      "growled": 8881,
      "curriculum": 8882,
      "##das": 8883,
      "loyal": 8884,
      "accomplished": 8885,
      "leslie": 8886,
      "ritual": 8887,
      "kenny": 8888,
      "##00": 8889,
      "vii": 8890,
      "napoleon": 8891,
      "hollow": 8892,
      "hybrid": 8893,
      "jungle": 8894,
      "stationed": 8895,
      "friedrich": 8896,
      "counted": 8897,
      "##ulated": 8898,
      "platinum": 8899,
      "theatrical": 8900,
      "seated": 8901,
      "col": 8902,
      "rubber": 8903,
      "glen": 8904,
      "1840": 8905,
      "diversity": 8906,
      "healing": 8907,
      "extends": 8908,
      "id": 8909,
      "provisions": 8910,
      "administrator": 8911,
      "columbus": 8912,
      "##oe": 8913,
      "tributary": 8914,
      "te": 8915,
      "assured": 8916,
      "org": 8917,
      "##uous": 8918,
      "prestigious": 8919,
      "examined": 8920,
      "lectures": 8921,
      "grammy": 8922,
      "ronald": 8923,
      "associations": 8924,
      "bailey": 8925,
      "allan": 8926,
      "essays": 8927,
      "flute": 8928,
      "believing": 8929,
      "consultant": 8930,
      "proceedings": 8931,
      "travelling": 8932,
      "1853": 8933,
      "kit": 8934,
      "kerala": 8935,
      "yugoslavia": 8936,
      "buddy": 8937,
      "methodist": 8938,
      "##ith": 8939,
      "burial": 8940,
      "centres": 8941,
      "batman": 8942,
      "##nda": 8943,
      "discontinued": 8944,
      "bo": 8945,
      "dock": 8946,
[...]
